{
  "version": "1.0",
  "truncation": null,
  "padding": {
    "strategy": "BatchLongest",
    "direction": "Right",
    "pad_to_multiple_of": null,
    "pad_id": 3,
    "pad_type_id": 0,
    "pad_token": "[PAD]"
  },
  "added_tokens": [
    {
      "id": 0,
      "content": "[UNK]",
      "single_word": false,
      "lstrip": false,
      "rstrip": false,
      "normalized": false,
      "special": true
    },
    {
      "id": 1,
      "content": "[CLS]",
      "single_word": false,
      "lstrip": false,
      "rstrip": false,
      "normalized": false,
      "special": true
    },
    {
      "id": 2,
      "content": "[SEP]",
      "single_word": false,
      "lstrip": false,
      "rstrip": false,
      "normalized": false,
      "special": true
    },
    {
      "id": 3,
      "content": "[PAD]",
      "single_word": false,
      "lstrip": false,
      "rstrip": false,
      "normalized": false,
      "special": true
    },
    {
      "id": 4,
      "content": "[MASK]",
      "single_word": false,
      "lstrip": false,
      "rstrip": false,
      "normalized": false,
      "special": true
    }
  ],
  "normalizer": null,
  "pre_tokenizer": {
    "type": "Whitespace"
  },
  "post_processor": null,
  "decoder": null,
  "model": {
    "type": "BPE",
    "dropout": null,
    "unk_token": "[UNK]",
    "continuing_subword_prefix": null,
    "end_of_word_suffix": null,
    "fuse_unk": false,
    "byte_fallback": false,
    "vocab": {
      "[UNK]": 0,
      "[CLS]": 1,
      "[SEP]": 2,
      "[PAD]": 3,
      "[MASK]": 4,
      "a": 5,
      "b": 6,
      "c": 7,
      "d": 8,
      "e": 9,
      "f": 10,
      "g": 11,
      "h": 12,
      "i": 13,
      "j": 14,
      "k": 15,
      "l": 16,
      "m": 17,
      "n": 18,
      "o": 19,
      "p": 20,
      "q": 21,
      "r": 22,
      "s": 23,
      "t": 24,
      "u": 25,
      "v": 26,
      "w": 27,
      "x": 28,
      "y": 29,
      "z": 30,
      "in": 31,
      "er": 32,
      "on": 33,
      "ed": 34,
      "re": 35,
      "ti": 36,
      "an": 37,
      "le": 38,
      "al": 39,
      "en": 40,
      "ar": 41,
      "th": 42,
      "ing": 43,
      "st": 44,
      "or": 45,
      "ou": 46,
      "es": 47,
      "it": 48,
      "at": 49,
      "se": 50,
      "tion": 51,
      "is": 52,
      "ly": 53,
      "li": 54,
      "ac": 55,
      "ag": 56,
      "om": 57,
      "de": 58,
      "ch": 59,
      "ad": 60,
      "ro": 61,
      "lo": 62,
      "us": 63,
      "ic": 64,
      "ent": 65,
      "as": 66,
      "tic": 67,
      "ay": 68,
      "el": 69,
      "am": 70,
      "ri": 71,
      "con": 72,
      "ve": 73,
      "nt": 74,
      "si": 75,
      "po": 76,
      "pe": 77,
      "wi": 78,
      "no": 79,
      "ver": 80,
      "su": 81,
      "ke": 82,
      "ce": 83,
      "artic": 84,
      "ation": 85,
      "ck": 86,
      "un": 87,
      "op": 88,
      "ld": 89,
      "gh": 90,
      "age": 91,
      "ia": 92,
      "article": 93,
      "com": 94,
      "te": 95,
      "ki": 96,
      "ne": 97,
      "pro": 98,
      "and": 99,
      "ate": 100,
      "one": 101,
      "the": 102,
      "ab": 103,
      "go": 104,
      "ap": 105,
      "ter": 106,
      "vi": 107,
      "ma": 108,
      "ho": 109,
      "wiki": 110,
      "me": 111,
      "ge": 112,
      "ped": 113,
      "ol": 114,
      "ct": 115,
      "if": 116,
      "be": 117,
      "ers": 118,
      "ul": 119,
      "ut": 120,
      "you": 121,
      "im": 122,
      "edit": 123,
      "ir": 124,
      "mo": 125,
      "qu": 126,
      "ex": 127,
      "pedia": 128,
      "il": 129,
      "so": 130,
      "ple": 131,
      "ur": 132,
      "ould": 133,
      "ther": 134,
      "id": 135,
      "page": 136,
      "ght": 137,
      "wikipedia": 138,
      "hi": 139,
      "ment": 140,
      "ally": 141,
      "our": 142,
      "for": 143,
      "pl": 144,
      "ant": 145,
      "tr": 146,
      "ink": 147,
      "ase": 148,
      "tal": 149,
      "ig": 150,
      "res": 151,
      "wor": 152,
      "bo": 153,
      "wh": 154,
      "talk": 155,
      "ok": 156,
      "ind": 157,
      "see": 158,
      "we": 159,
      "thing": 160,
      "dis": 161,
      "like": 162,
      "ll": 163,
      "ci": 164,
      "cont": 165,
      "cl": 166,
      "sh": 167,
      "act": 168,
      "ack": 169,
      "man": 170,
      "ra": 171,
      "der": 172,
      "would": 173,
      "ist": 174,
      "now": 175,
      "per": 176,
      "ity": 177,
      "to": 178,
      "ta": 179,
      "uck": 180,
      "ted": 181,
      "ard": 182,
      "ces": 183,
      "all": 184,
      "gu": 185,
      "he": 186,
      "fe": 187,
      "ite": 188,
      "ank": 189,
      "add": 190,
      "um": 191,
      "please": 192,
      "ell": 193,
      "fuck": 194,
      "ome": 195,
      "use": 196,
      "fer": 197,
      "know": 198,
      "co": 199,
      "ous": 200,
      "able": 201,
      "ca": 202,
      "ts": 203,
      "od": 204,
      "dele": 205,
      "ish": 206,
      "end": 207,
      "por": 208,
      "ated": 209,
      "les": 210,
      "ven": 211,
      "sour": 212,
      "way": 213,
      "gr": 214,
      "je": 215,
      "think": 216,
      "ree": 217,
      "up": 218,
      "some": 219,
      "ong": 220,
      "pre": 221,
      "ame": 222,
      "thank": 223,
      "tt": 224,
      "ction": 225,
      "par": 226,
      "ans": 227,
      "gi": 228,
      "ast": 229,
      "ence": 230,
      "oun": 231,
      "sion": 232,
      "form": 233,
      "peop": 234,
      "ass": 235,
      "min": 236,
      "int": 237,
      "any": 238,
      "people": 239,
      "do": 240,
      "read": 241,
      "blo": 242,
      "also": 243,
      "say": 244,
      "ff": 245,
      "ble": 246,
      "thou": 247,
      "hel": 248,
      "ine": 249,
      "di": 250,
      "this": 251,
      "may": 252,
      "ound": 253,
      "spe": 254,
      "fa": 255,
      "est": 256,
      "ber": 257,
      "sa": 258,
      "ha": 259,
      "cus": 260,
      "wr": 261,
      "mar": 262,
      "right": 263,
      "fi": 264,
      "lic": 265,
      "tive": 266,
      "tions": 267,
      "ye": 268,
      "new": 269,
      "ru": 270,
      "ved": 271,
      "mu": 272,
      "ry": 273,
      "ms": 274,
      "time": 275,
      "ever": 276,
      "ion": 277,
      "ess": 278,
      "bl": 279,
      "sp": 280,
      "ages": 281,
      "are": 282,
      "block": 283,
      "need": 284,
      "king": 285,
      "ain": 286,
      "ory": 287,
      "get": 288,
      "cor": 289,
      "ure": 290,
      "ty": 291,
      "ob": 292,
      "ace": 293,
      "pr": 294,
      "pers": 295,
      "fo": 296,
      "how": 297,
      "want": 298,
      "vie": 299,
      "cou": 300,
      "user": 301,
      "articles": 302,
      "cre": 303,
      "mi": 304,
      "ud": 305,
      "inter": 306,
      "ors": 307,
      "ism": 308,
      "ue": 309,
      "chan": 310,
      "rib": 311,
      "look": 312,
      "ting": 313,
      "link": 314,
      "ser": 315,
      "low": 316,
      "remo": 317,
      "ful": 318,
      "person": 319,
      "ger": 320,
      "fir": 321,
      "list": 322,
      "even": 323,
      "not": 324,
      "discus": 325,
      "help": 326,
      "name": 327,
      "ary": 328,
      "des": 329,
      "iz": 330,
      "cr": 331,
      "port": 332,
      "come": 333,
      "rect": 334,
      "good": 335,
      "back": 336,
      "make": 337,
      "la": 338,
      "work": 339,
      "view": 340,
      "refer": 341,
      "wo": 342,
      "mon": 343,
      "thanks": 344,
      "well": 345,
      "cho": 346,
      "ject": 347,
      "ep": 348,
      "war": 349,
      "pos": 350,
      "ations": 351,
      "sub": 352,
      "app": 353,
      "could": 354,
      "fact": 355,
      "pu": 356,
      "day": 357,
      "inform": 358,
      "ian": 359,
      "mp": 360,
      "count": 361,
      "sti": 362,
      "comment": 363,
      "ere": 364,
      "du": 365,
      "che": 366,
      "med": 367,
      "ars": 368,
      "ick": 369,
      "att": 370,
      "red": 371,
      "stand": 372,
      "ques": 373,
      "cur": 374,
      "ide": 375,
      "section": 376,
      "mat": 377,
      "ason": 378,
      "pres": 379,
      "first": 380,
      "sen": 381,
      "information": 382,
      "my": 383,
      "call": 384,
      "men": 385,
      "cle": 386,
      "gen": 387,
      "au": 388,
      "andal": 389,
      "gn": 390,
      "used": 391,
      "put": 392,
      "ance": 393,
      "bi": 394,
      "every": 395,
      "vandal": 396,
      "there": 397,
      "col": 398,
      "bit": 399,
      "sources": 400,
      "ial": 401,
      "cri": 402,
      "less": 403,
      "ving": 404,
      "contrib": 405,
      "ak": 406,
      "enti": 407,
      "try": 408,
      "cent": 409,
      "but": 410,
      "wp": 411,
      "sup": 412,
      "rever": 413,
      "that": 414,
      "hist": 415,
      "many": 416,
      "jo": 417,
      "deletion": 418,
      "dif": 419,
      "find": 420,
      "arch": 421,
      "pri": 422,
      "what": 423,
      "sin": 424,
      "nig": 425,
      "reg": 426,
      "of": 427,
      "ice": 428,
      "itt": 429,
      "pages": 430,
      "incl": 431,
      "requ": 432,
      "source": 433,
      "image": 434,
      "ste": 435,
      "point": 436,
      "bul": 437,
      "reason": 438,
      "enc": 439,
      "mis": 440,
      "really": 441,
      "na": 442,
      "fin": 443,
      "word": 444,
      "sy": 445,
      "consi": 446,
      "much": 447,
      "xt": 448,
      "made": 449,
      "cop": 450,
      "et": 451,
      "cer": 452,
      "star": 453,
      "post": 454,
      "lie": 455,
      "ates": 456,
      "vo": 457,
      "ually": 458,
      "fr": 459,
      "editing": 460,
      "ical": 461,
      "discussion": 462,
      "ww": 463,
      "log": 464,
      "other": 465,
      "under": 466,
      "ves": 467,
      "admin": 468,
      "clo": 469,
      "ies": 470,
      "ph": 471,
      "got": 472,
      "pa": 473,
      "ask": 474,
      "ttp": 475,
      "edits": 476,
      "http": 477,
      "ating": 478,
      "let": 479,
      "sing": 480,
      "state": 481,
      "ust": 482,
      "ot": 483,
      "aa": 484,
      "reat": 485,
      "cep": 486,
      "br": 487,
      "still": 488,
      "ual": 489,
      "ning": 490,
      "off": 491,
      "sor": 492,
      "scho": 493,
      "sure": 494,
      "gl": 495,
      "comm": 496,
      "school": 497,
      "since": 498,
      "your": 499,
      "show": 500,
      "stop": 501,
      "reli": 502,
      "someone": 503,
      "zz": 504,
      "sign": 505,
      "going": 506,
      "take": 507,
      "tim": 508,
      "ip": 509,
      "top": 510,
      "tag": 511,
      "deleted": 512,
      "clear": 513,
      "aim": 514,
      "str": 515,
      "said": 516,
      "copy": 517,
      "belie": 518,
      "consider": 519,
      "two": 520,
      "ign": 521,
      "free": 522,
      "vid": 523,
      "high": 524,
      "ged": 525,
      "cu": 526,
      "issu": 527,
      "something": 528,
      "place": 529,
      "though": 530,
      "dy": 531,
      "real": 532,
      "using": 533,
      "mean": 534,
      "claim": 535,
      "cess": 536,
      "ced": 537,
      "book": 538,
      "ach": 539,
      "wel": 540,
      "gay": 541,
      "proble": 542,
      "never": 543,
      "ill": 544,
      "out": 545,
      "agree": 546,
      "content": 547,
      "fol": 548,
      "bet": 549,
      "mus": 550,
      "expl": 551,
      "happ": 552,
      "feel": 553,
      "poli": 554,
      "who": 555,
      "val": 556,
      "bas": 557,
      "ific": 558,
      "non": 559,
      "long": 560,
      "wn": 561,
      "main": 562,
      "tem": 563,
      "site": 564,
      "ban": 565,
      "ie": 566,
      "tur": 567,
      "differ": 568,
      "blocked": 569,
      "aph": 570,
      "can": 571,
      "thout": 572,
      "without": 573,
      "nigger": 574,
      "hu": 575,
      "ft": 576,
      "history": 577,
      "pon": 578,
      "mention": 579,
      "part": 580,
      "keep": 581,
      "interest": 582,
      "another": 583,
      "web": 584,
      "text": 585,
      "might": 586,
      "ga": 587,
      "note": 588,
      "amer": 589,
      "lev": 590,
      "ines": 591,
      "added": 592,
      "wer": 593,
      "mil": 594,
      "org": 595,
      "ah": 596,
      "ict": 597,
      "vol": 598,
      "contin": 599,
      "af": 600,
      "regard": 601,
      "question": 602,
      "understand": 603,
      "hope": 604,
      "search": 605,
      "sty": 606,
      "tain": 607,
      "follow": 608,
      "ges": 609,
      "sus": 610,
      "cit": 611,
      "line": 612,
      "umb": 613,
      "done": 614,
      "case": 615,
      "better": 616,
      "ences": 617,
      "mem": 618,
      "ility": 619,
      "ough": 620,
      "shit": 621,
      "anything": 622,
      "request": 623,
      "sug": 624,
      "oo": 625,
      "ily": 626,
      "orig": 627,
      "ition": 628,
      "ys": 629,
      "kes": 630,
      "world": 631,
      "iter": 632,
      "rel": 633,
      "ious": 634,
      "actually": 635,
      "removed": 636,
      "gener": 637,
      "origin": 638,
      "ably": 639,
      "ren": 640,
      "appe": 641,
      "editors": 642,
      "correct": 643,
      "welcome": 644,
      "ments": 645,
      "tit": 646,
      "ency": 647,
      "howe": 648,
      "har": 649,
      "pect": 650,
      "however": 651,
      "suck": 652,
      "spec": 653,
      "led": 654,
      "seems": 655,
      "check": 656,
      "vious": 657,
      "box": 658,
      "ready": 659,
      "subject": 660,
      "ular": 661,
      "gest": 662,
      "believe": 663,
      "ned": 664,
      "best": 665,
      "things": 666,
      "mess": 667,
      "ss": 668,
      "tical": 669,
      "utc": 670,
      "lan": 671,
      "found": 672,
      "notic": 673,
      "attack": 674,
      "personal": 675,
      "ress": 676,
      "americ": 677,
      "tri": 678,
      "ties": 679,
      "ward": 680,
      "fair": 681,
      "ef": 682,
      "mer": 683,
      "includ": 684,
      "head": 685,
      "rent": 686,
      "appro": 687,
      "nn": 688,
      "far": 689,
      "wat": 690,
      "char": 691,
      "speed": 692,
      "change": 693,
      "play": 694,
      "nam": 695,
      "ational": 696,
      "links": 697,
      "style": 698,
      "big": 699,
      "haha": 700,
      "ris": 701,
      "ref": 702,
      "respon": 703,
      "wrong": 704,
      "great": 705,
      "bar": 706,
      "uu": 707,
      "test": 708,
      "exam": 709,
      "vandalism": 710,
      "opin": 711,
      "why": 712,
      "copyright": 713,
      "comp": 714,
      "ittle": 715,
      "nothing": 716,
      "fl": 717,
      "ways": 718,
      "ps": 719,
      "thers": 720,
      "polic": 721,
      "cord": 722,
      "don": 723,
      "little": 724,
      "review": 725,
      "policy": 726,
      "pub": 727,
      "present": 728,
      "cour": 729,
      "opinion": 730,
      "lea": 731,
      "current": 732,
      "contribu": 733,
      "yes": 734,
      "engl": 735,
      "sum": 736,
      "already": 737,
      "comments": 738,
      "va": 739,
      "fic": 740,
      "vis": 741,
      "tell": 742,
      "they": 743,
      "must": 744,
      "ither": 745,
      "cept": 746,
      "care": 747,
      "give": 748,
      "problem": 749,
      "sex": 750,
      "jew": 751,
      "last": 752,
      "pov": 753,
      "bro": 754,
      "wa": 755,
      "argu": 756,
      "old": 757,
      "project": 758,
      "sul": 759,
      "lot": 760,
      "years": 761,
      "anyone": 762,
      "fun": 763,
      "fucking": 764,
      "car": 765,
      "public": 766,
      "possi": 767,
      "stu": 768,
      "explain": 769,
      "editor": 770,
      "ight": 771,
      "example": 772,
      "life": 773,
      "ash": 774,
      "nor": 775,
      "defin": 776,
      "vent": 777,
      "irl": 778,
      "ens": 779,
      "bad": 780,
      "sm": 781,
      "trying": 782,
      "else": 783,
      "mit": 784,
      "thought": 785,
      "lead": 786,
      "encyclo": 787,
      "exper": 788,
      "adding": 789,
      "where": 790,
      "guide": 791,
      "bu": 792,
      "account": 793,
      "ild": 794,
      "questions": 795,
      "ctive": 796,
      "different": 797,
      "reliable": 798,
      "vide": 799,
      "conf": 800,
      "sent": 801,
      "times": 802,
      "prob": 803,
      "fag": 804,
      "comple": 805,
      "by": 806,
      "sit": 807,
      "making": 808,
      "cial": 809,
      "land": 810,
      "da": 811,
      "grou": 812,
      "others": 813,
      "remove": 814,
      "bri": 815,
      "fri": 816,
      "called": 817,
      "yy": 818,
      "ten": 819,
      "cond": 820,
      "tting": 821,
      "num": 822,
      "lect": 823,
      "girl": 824,
      "just": 825,
      "import": 826,
      "len": 827,
      "issue": 828,
      "exist": 829,
      "bitch": 830,
      "fam": 831,
      "rest": 832,
      "kill": 833,
      "hate": 834,
      "rather": 835,
      "commun": 836,
      "sorry": 837,
      "says": 838,
      "cc": 839,
      "partic": 840,
      "mor": 841,
      "stru": 842,
      "ror": 843,
      "simp": 844,
      "hip": 845,
      "english": 846,
      "tu": 847,
      "cate": 848,
      "leg": 849,
      "prom": 850,
      "sel": 851,
      "body": 852,
      "with": 853,
      "sur": 854,
      "templ": 855,
      "matter": 856,
      "support": 857,
      "suggest": 858,
      "ear": 859,
      "over": 860,
      "als": 861,
      "second": 862,
      "ath": 863,
      "ks": 864,
      "inde": 865,
      "reference": 866,
      "aps": 867,
      "media": 868,
      "sense": 869,
      "anti": 870,
      "posi": 871,
      "national": 872,
      "os": 873,
      "black": 874,
      "ude": 875,
      "ral": 876,
      "ton": 877,
      "sci": 878,
      "ize": 879,
      "langu": 880,
      "speedy": 881,
      "probably": 882,
      "trans": 883,
      "istr": 884,
      "produ": 885,
      "wom": 886,
      "kind": 887,
      "ny": 888,
      "side": 889,
      "write": 890,
      "son": 891,
      "ings": 892,
      "mind": 893,
      "den": 894,
      "original": 895,
      "oh": 896,
      "sed": 897,
      "law": 898,
      "references": 899,
      "ability": 900,
      "dumb": 901,
      "load": 902,
      "lied": 903,
      "leave": 904,
      "ator": 905,
      "posed": 906,
      "ult": 907,
      "ished": 908,
      "ster": 909,
      "ken": 910,
      "vers": 911,
      "mater": 912,
      "dr": 913,
      "musli": 914,
      "ze": 915,
      "enough": 916,
      "around": 917,
      "vil": 918,
      "most": 919,
      "bor": 920,
      "her": 921,
      "lat": 922,
      "least": 923,
      "ately": 924,
      "continue": 925,
      "either": 926,
      "material": 927,
      "etc": 928,
      "mary": 929,
      "chris": 930,
      "bre": 931,
      "auth": 932,
      "graph": 933,
      "row": 934,
      "its": 935,
      "certain": 936,
      "recent": 937,
      "info": 938,
      "idi": 939,
      "lines": 940,
      "consen": 941,
      "plac": 942,
      "contro": 943,
      "simply": 944,
      "always": 945,
      "date": 946,
      "created": 947,
      "categ": 948,
      "ians": 949,
      "friend": 950,
      "version": 951,
      "ese": 952,
      "research": 953,
      "white": 954,
      "saying": 955,
      "ds": 956,
      "evid": 957,
      "amp": 958,
      "whe": 959,
      "move": 960,
      "ging": 961,
      "ics": 962,
      "consensus": 963,
      "cal": 964,
      "ground": 965,
      "relev": 966,
      "lar": 967,
      "rac": 968,
      "common": 969,
      "itten": 970,
      "specific": 971,
      "yet": 972,
      "given": 973,
      "needs": 974,
      "die": 975,
      "wee": 976,
      "hello": 977,
      "exp": 978,
      "aw": 979,
      "dec": 980,
      "maybe": 981,
      "appropri": 982,
      "ama": 983,
      "inste": 984,
      "written": 985,
      "notable": 986,
      "fil": 987,
      "address": 988,
      "seem": 989,
      "hand": 990,
      "complete": 991,
      "irect": 992,
      "uni": 993,
      "pict": 994,
      "here": 995,
      "lam": 996,
      "delete": 997,
      "cover": 998,
      "sive": 999,
      "concer": 1000,
      "god": 1001,
      "love": 1002,
      "self": 1003,
      "lies": 1004,
      "getting": 1005,
      "pop": 1006,
      "fore": 1007,
      "member": 1008,
      "dick": 1009,
      "jor": 1010,
      "number": 1011,
      "true": 1012,
      "important": 1013,
      "impro": 1014,
      "pose": 1015,
      "ists": 1016,
      "sc": 1017,
      "allow": 1018,
      "iting": 1019,
      "ive": 1020,
      "obvious": 1021,
      "title": 1022,
      "stup": 1023,
      "term": 1024,
      "og": 1025,
      "watch": 1026,
      "users": 1027,
      "criter": 1028,
      "redirect": 1029,
      "logy": 1030,
      "makes": 1031,
      "images": 1032,
      "cause": 1033,
      "language": 1034,
      "stupid": 1035,
      "message": 1036,
      "instead": 1037,
      "ang": 1038,
      "omin": 1039,
      "states": 1040,
      "direct": 1041,
      "sol": 1042,
      "light": 1043,
      "preci": 1044,
      "ased": 1045,
      "reverted": 1046,
      "hard": 1047,
      "pho": 1048,
      "tra": 1049,
      "fect": 1050,
      "appropriate": 1051,
      "clearly": 1052,
      "notice": 1053,
      "christi": 1054,
      "year": 1055,
      "color": 1056,
      "evidence": 1057,
      "relevant": 1058,
      "encyclopedia": 1059,
      "zzzz": 1060,
      "rape": 1061,
      "aaaa": 1062,
      "group": 1063,
      "past": 1064,
      "ner": 1065,
      "possible": 1066,
      "perh": 1067,
      "quite": 1068,
      "words": 1069,
      "perhaps": 1070,
      "template": 1071,
      "ters": 1072,
      "offic": 1073,
      "bus": 1074,
      "sever": 1075,
      "ied": 1076,
      "invol": 1077,
      "viol": 1078,
      "left": 1079,
      "whether": 1080,
      "news": 1081,
      "net": 1082,
      "nal": 1083,
      "cap": 1084,
      "tru": 1085,
      "bully": 1086,
      "tw": 1087,
      "administr": 1088,
      "contributions": 1089,
      "contribut": 1090,
      "qual": 1091,
      "bel": 1092,
      "usion": 1093,
      "american": 1094,
      "cy": 1095,
      "ni": 1096,
      "idea": 1097,
      "ise": 1098,
      "tre": 1099,
      "when": 1100,
      "happen": 1101,
      "ution": 1102,
      "islam": 1103,
      "crip": 1104,
      "based": 1105,
      "ball": 1106,
      "ones": 1107,
      "prote": 1108,
      "var": 1109,
      "website": 1110,
      "upload": 1111,
      "more": 1112,
      "tail": 1113,
      "lear": 1114,
      "quo": 1115,
      "ring": 1116,
      "start": 1117,
      "known": 1118,
      "dou": 1119,
      "ii": 1120,
      "ited": 1121,
      "mail": 1122,
      "author": 1123,
      "lol": 1124,
      "neut": 1125,
      "ale": 1126,
      "ures": 1127,
      "course": 1128,
      "cies": 1129,
      "open": 1130,
      "child": 1131,
      "she": 1132,
      "uk": 1133,
      "hey": 1134,
      "major": 1135,
      "sock": 1136,
      "publ": 1137,
      "general": 1138,
      "appear": 1139,
      "pen": 1140,
      "ort": 1141,
      "means": 1142,
      "gg": 1143,
      "ital": 1144,
      "whole": 1145,
      "fy": 1146,
      "fully": 1147,
      "air": 1148,
      "gion": 1149,
      "came": 1150,
      "hy": 1151,
      "bal": 1152,
      "considered": 1153,
      "organ": 1154,
      "class": 1155,
      "temp": 1156,
      "will": 1157,
      "changes": 1158,
      "ents": 1159,
      "wish": 1160,
      "several": 1161,
      "ness": 1162,
      "tho": 1163,
      "tics": 1164,
      "tro": 1165,
      "poin": 1166,
      "pur": 1167,
      "rus": 1168,
      "ith": 1169,
      "seen": 1170,
      "terror": 1171,
      "guidelines": 1172,
      "photo": 1173,
      "revert": 1174,
      "ized": 1175,
      "dam": 1176,
      "aut": 1177,
      "particular": 1178,
      "ee": 1179,
      "position": 1180,
      "criteria": 1181,
      "histor": 1182,
      "neutral": 1183,
      "serious": 1184,
      "human": 1185,
      "bio": 1186,
      "warning": 1187,
      "tty": 1188,
      "rep": 1189,
      "ically": 1190,
      "listed": 1191,
      "ina": 1192,
      "fort": 1193,
      "ko": 1194,
      "gover": 1195,
      "accept": 1196,
      "following": 1197,
      "agr": 1198,
      "proper": 1199,
      "cli": 1200,
      "statement": 1201,
      "sch": 1202,
      "verif": 1203,
      "entire": 1204,
      "mentioned": 1205,
      "set": 1206,
      "arent": 1207,
      "rules": 1208,
      "ire": 1209,
      "answer": 1210,
      "eu": 1211,
      "ani": 1212,
      "won": 1213,
      "que": 1214,
      "days": 1215,
      "ju": 1216,
      "dont": 1217,
      "mal": 1218,
      "ature": 1219,
      "fix": 1220,
      "order": 1221,
      "four": 1222,
      "resul": 1223,
      "happy": 1224,
      "topic": 1225,
      "ended": 1226,
      "ised": 1227,
      "related": 1228,
      "reed": 1229,
      "fal": 1230,
      "ries": 1231,
      "soci": 1232,
      "regarding": 1233,
      "file": 1234,
      "acy": 1235,
      "syste": 1236,
      "detail": 1237,
      "eas": 1238,
      "facts": 1239,
      "sou": 1240,
      "band": 1241,
      "three": 1242,
      "ron": 1243,
      "pup": 1244,
      "issues": 1245,
      "include": 1246,
      "country": 1247,
      "create": 1248,
      "everyone": 1249,
      "run": 1250,
      "full": 1251,
      "hind": 1252,
      "gree": 1253,
      "appreci": 1254,
      "whi": 1255,
      "power": 1256,
      "ago": 1257,
      "exact": 1258,
      "art": 1259,
      "accord": 1260,
      "lab": 1261,
      "az": 1262,
      "next": 1263,
      "emp": 1264,
      "mm": 1265,
      "mist": 1266,
      "mid": 1267,
      "def": 1268,
      "faggot": 1269,
      "bullied": 1270,
      "attemp": 1271,
      "bur": 1272,
      "action": 1273,
      "hom": 1274,
      "away": 1275,
      "dist": 1276,
      "del": 1277,
      "event": 1278,
      "ns": 1279,
      "ention": 1280,
      "due": 1281,
      "did": 1282,
      "sho": 1283,
      "names": 1284,
      "live": 1285,
      "sid": 1286,
      "charac": 1287,
      "rain": 1288,
      "guy": 1289,
      "looking": 1290,
      "ration": 1291,
      "suppor": 1292,
      "ute": 1293,
      "ran": 1294,
      "christian": 1295,
      "standard": 1296,
      "pp": 1297,
      "sist": 1298,
      "accur": 1299,
      "face": 1300,
      "hh": 1301,
      "background": 1302,
      "including": 1303,
      "tically": 1304,
      "puppe": 1305,
      "sand": 1306,
      "tis": 1307,
      "today": 1308,
      "pend": 1309,
      "changed": 1310,
      "started": 1311,
      "vice": 1312,
      "kk": 1313,
      "category": 1314,
      "apo": 1315,
      "necess": 1316,
      "pretty": 1317,
      "sentence": 1318,
      "cas": 1319,
      "beg": 1320,
      "short": 1321,
      "record": 1322,
      "anal": 1323,
      "eng": 1324,
      "pass": 1325,
      "fat": 1326,
      "worth": 1327,
      "simil": 1328,
      "addition": 1329,
      "community": 1330,
      "sound": 1331,
      "placed": 1332,
      "espe": 1333,
      "indic": 1334,
      "ade": 1335,
      "wikiped": 1336,
      "em": 1337,
      "provide": 1338,
      "jud": 1339,
      "stay": 1340,
      "nice": 1341,
      "lion": 1342,
      "www": 1343,
      "nomin": 1344,
      "rup": 1345,
      "cially": 1346,
      "respect": 1347,
      "govern": 1348,
      "uation": 1349,
      "stud": 1350,
      "key": 1351,
      "remember": 1352,
      "later": 1353,
      "picture": 1354,
      "again": 1355,
      "uuuu": 1356,
      "ump": 1357,
      "rele": 1358,
      "stuff": 1359,
      "ators": 1360,
      "repor": 1361,
      "women": 1362,
      "writing": 1363,
      "hal": 1364,
      "ham": 1365,
      "deal": 1366,
      "vic": 1367,
      "small": 1368,
      "anyway": 1369,
      "mul": 1370,
      "gre": 1371,
      "fail": 1372,
      "atur": 1373,
      "month": 1374,
      "accus": 1375,
      "civil": 1376,
      "beha": 1377,
      "similar": 1378,
      "jok": 1379,
      "yu": 1380,
      "bb": 1381,
      "notability": 1382,
      "looks": 1383,
      "ories": 1384,
      "eth": 1385,
      "according": 1386,
      "joh": 1387,
      "included": 1388,
      "although": 1389,
      "ently": 1390,
      "ird": 1391,
      "jus": 1392,
      "sourced": 1393,
      "gram": 1394,
      "official": 1395,
      "paragr": 1396,
      "wro": 1397,
      "hold": 1398,
      "stat": 1399,
      "hor": 1400,
      "wanted": 1401,
      "ben": 1402,
      "ele": 1403,
      "desc": 1404,
      "wonder": 1405,
      "critic": 1406,
      "ross": 1407,
      "intro": 1408,
      "paragraph": 1409,
      "mission": 1410,
      "ames": 1411,
      "ins": 1412,
      "game": 1413,
      "discuss": 1414,
      "email": 1415,
      "tech": 1416,
      "wrote": 1417,
      "books": 1418,
      "single": 1419,
      "mag": 1420,
      "especially": 1421,
      "faith": 1422,
      "summary": 1423,
      "ctions": 1424,
      "rom": 1425,
      "alter": 1426,
      "removing": 1427,
      "truth": 1428,
      "pat": 1429,
      "everything": 1430,
      "taken": 1431,
      "provid": 1432,
      "wise": 1433,
      "tish": 1434,
      "music": 1435,
      "rad": 1436,
      "previous": 1437,
      "claims": 1438,
      "talking": 1439,
      "assu": 1440,
      "pie": 1441,
      "guess": 1442,
      "ili": 1443,
      "velo": 1444,
      "liber": 1445,
      "improve": 1446,
      "interested": 1447,
      "cock": 1448,
      "inc": 1449,
      "repe": 1450,
      "week": 1451,
      "van": 1452,
      "ba": 1453,
      "process": 1454,
      "deb": 1455,
      "party": 1456,
      "ley": 1457,
      "edited": 1458,
      "currently": 1459,
      "prof": 1460,
      "speak": 1461,
      "imp": 1462,
      "within": 1463,
      "pg": 1464,
      "ledge": 1465,
      "promo": 1466,
      "report": 1467,
      "cat": 1468,
      "ng": 1469,
      "hit": 1470,
      "io": 1471,
      "rid": 1472,
      "unless": 1473,
      "city": 1474,
      "clar": 1475,
      "government": 1476,
      "mother": 1477,
      "mark": 1478,
      "fut": 1479,
      "plan": 1480,
      "yyyy": 1481,
      "pus": 1482,
      "policies": 1483,
      "gy": 1484,
      "appears": 1485,
      "completely": 1486,
      "false": 1487,
      "jokes": 1488,
      "eld": 1489,
      "super": 1490,
      "ision": 1491,
      "involved": 1492,
      "respond": 1493,
      "working": 1494,
      "cra": 1495,
      "euro": 1496,
      "sk": 1497,
      "certainly": 1498,
      "sim": 1499,
      "idiot": 1500,
      "jan": 1501,
      "sites": 1502,
      "nnnn": 1503,
      "sto": 1504,
      "colle": 1505,
      "coming": 1506,
      "dra": 1507,
      "controver": 1508,
      "death": 1509,
      "protect": 1510,
      "cunt": 1511,
      "bs": 1512,
      "bum": 1513,
      "develo": 1514,
      "likely": 1515,
      "ony": 1516,
      "fig": 1517,
      "published": 1518,
      "comes": 1519,
      "wards": 1520,
      "attacks": 1521,
      "ants": 1522,
      "political": 1523,
      "board": 1524,
      "system": 1525,
      "pot": 1526,
      "quote": 1527,
      "reading": 1528,
      "nigg": 1529,
      "medi": 1530,
      "ogle": 1531,
      "john": 1532,
      "muslim": 1533,
      "ignor": 1534,
      "gust": 1535,
      "ling": 1536,
      "behavi": 1537,
      "asked": 1538,
      "cide": 1539,
      "boy": 1540,
      "google": 1541,
      "dan": 1542,
      "void": 1543,
      "bt": 1544,
      "dro": 1545,
      "represent": 1546,
      "identi": 1547,
      "whate": 1548,
      "dle": 1549,
      "isra": 1550,
      "future": 1551,
      "bers": 1552,
      "whatever": 1553,
      "hell": 1554,
      "oper": 1555,
      "obviously": 1556,
      "ouse": 1557,
      "press": 1558,
      "argument": 1559,
      "learn": 1560,
      "muslims": 1561,
      "jun": 1562,
      "ization": 1563,
      "joke": 1564,
      "gar": 1565,
      "mber": 1566,
      "vin": 1567,
      "signific": 1568,
      "have": 1569,
      "admins": 1570,
      "fied": 1571,
      "contr": 1572,
      "descrip": 1573,
      "large": 1574,
      "explan": 1575,
      "typ": 1576,
      "enced": 1577,
      "threat": 1578,
      "uses": 1579,
      "saw": 1580,
      "exactly": 1581,
      "story": 1582,
      "meaning": 1583,
      "sts": 1584,
      "legal": 1585,
      "sco": 1586,
      "stitu": 1587,
      "crap": 1588,
      "joy": 1589,
      "univers": 1590,
      "uc": 1591,
      "valid": 1592,
      "constru": 1593,
      "girls": 1594,
      "useful": 1595,
      "therefore": 1596,
      "sw": 1597,
      "job": 1598,
      "united": 1599,
      "bility": 1600,
      "took": 1601,
      "dom": 1602,
      "become": 1603,
      "moron": 1604,
      "mr": 1605,
      "win": 1606,
      "response": 1607,
      "british": 1608,
      "disagree": 1609,
      "hour": 1610,
      "entry": 1611,
      "film": 1612,
      "space": 1613,
      "avoid": 1614,
      "lict": 1615,
      "sexual": 1616,
      "soon": 1617,
      "dd": 1618,
      "docu": 1619,
      "ja": 1620,
      "contribs": 1621,
      "strong": 1622,
      "oooo": 1623,
      "ulation": 1624,
      "german": 1625,
      "ots": 1626,
      "ense": 1627,
      "scienti": 1628,
      "posted": 1629,
      "lent": 1630,
      "nic": 1631,
      "points": 1632,
      "type": 1633,
      "ret": 1634,
      "sandbox": 1635,
      "family": 1636,
      "lack": 1637,
      "aware": 1638,
      "almost": 1639,
      "cited": 1640,
      "dat": 1641,
      "reasons": 1642,
      "then": 1643,
      "fine": 1644,
      "views": 1645,
      "needed": 1646,
      "contact": 1647,
      "wikiproject": 1648,
      "close": 1649,
      "reply": 1650,
      "oma": 1651,
      "company": 1652,
      "taking": 1653,
      "europe": 1654,
      "roy": 1655,
      "because": 1656,
      "describ": 1657,
      "noticed": 1658,
      "multi": 1659,
      "home": 1660,
      "experi": 1661,
      "prin": 1662,
      "kr": 1663,
      "guys": 1664,
      "five": 1665,
      "along": 1666,
      "pt": 1667,
      "does": 1668,
      "ord": 1669,
      "spir": 1670,
      "tar": 1671,
      "tiv": 1672,
      "dar": 1673,
      "own": 1674,
      "foot": 1675,
      "ler": 1676,
      "conflict": 1677,
      "middle": 1678,
      "fight": 1679,
      "often": 1680,
      "ought": 1681,
      "introdu": 1682,
      "mom": 1683,
      "inst": 1684,
      "necessary": 1685,
      "cogn": 1686,
      "problems": 1687,
      "minor": 1688,
      "prac": 1689,
      "ya": 1690,
      "rule": 1691,
      "tried": 1692,
      "after": 1693,
      "went": 1694,
      "ount": 1695,
      "ative": 1696,
      "mac": 1697,
      "ka": 1698,
      "compl": 1699,
      "dog": 1700,
      "confir": 1701,
      "bly": 1702,
      "told": 1703,
      "his": 1704,
      "knowledge": 1705,
      "jews": 1706,
      "regards": 1707,
      "urch": 1708,
      "continu": 1709,
      "vision": 1710,
      "song": 1711,
      "male": 1712,
      "disrup": 1713,
      "tut": 1714,
      "iness": 1715,
      "ending": 1716,
      "social": 1717,
      "jpg": 1718,
      "enjoy": 1719,
      "wikipediaorg": 1720,
      "appreciate": 1721,
      "late": 1722,
      "mad": 1723,
      "step": 1724,
      "pute": 1725,
      "level": 1726,
      "terms": 1727,
      "russi": 1728,
      "und": 1729,
      "sta": 1730,
      "separ": 1731,
      "pap": 1732,
      "logi": 1733,
      "yeah": 1734,
      "hahahaha": 1735,
      "actions": 1736,
      "hone": 1737,
      "accurate": 1738,
      "team": 1739,
      "interesting": 1740,
      "shows": 1741,
      "yuyu": 1742,
      "sucks": 1743,
      "ali": 1744,
      "hear": 1745,
      "members": 1746,
      "character": 1747,
      "graphy": 1748,
      "signed": 1749,
      "while": 1750,
      "unch": 1751,
      "expect": 1752,
      "church": 1753,
      "indi": 1754,
      "toge": 1755,
      "definition": 1756,
      "cut": 1757,
      "fan": 1758,
      "moder": 1759,
      "tyty": 1760,
      "via": 1761,
      "works": 1762,
      "together": 1763,
      "cult": 1764,
      "wwww": 1765,
      "phi": 1766,
      "pol": 1767,
      "wil": 1768,
      "vandalize": 1769,
      "npov": 1770,
      "dispute": 1771,
      "administrator": 1772,
      "cheers": 1773,
      "bot": 1774,
      "religion": 1775,
      "context": 1776,
      "alone": 1777,
      "sort": 1778,
      "experim": 1779,
      "thus": 1780,
      "video": 1781,
      "ats": 1782,
      "remain": 1783,
      "stated": 1784,
      "prop": 1785,
      "prefer": 1786,
      "cite": 1787,
      "ses": 1788,
      "status": 1789,
      "actual": 1790,
      "resol": 1791,
      "otherwise": 1792,
      "cam": 1793,
      "science": 1794,
      "username": 1795,
      "force": 1796,
      "aged": 1797,
      "termin": 1798,
      "mic": 1799,
      "ered": 1800,
      "recogn": 1801,
      "align": 1802,
      "tional": 1803,
      "calling": 1804,
      "mur": 1805,
      "these": 1806,
      "vail": 1807,
      "turn": 1808,
      "wal": 1809,
      "enwikipediaorg": 1810,
      "fav": 1811,
      "penis": 1812,
      "recently": 1813,
      "ket": 1814,
      "cul": 1815,
      "area": 1816,
      "explanation": 1817,
      "clean": 1818,
      "indivi": 1819,
      "contain": 1820,
      "woman": 1821,
      "provided": 1822,
      "none": 1823,
      "apparent": 1824,
      "pi": 1825,
      "individu": 1826,
      "ison": 1827,
      "ify": 1828,
      "equ": 1829,
      "han": 1830,
      "reverting": 1831,
      "fel": 1832,
      "moved": 1833,
      "generally": 1834,
      "obje": 1835,
      "niggers": 1836,
      "sugges": 1837,
      "pic": 1838,
      "zzzzzzzz": 1839,
      "ont": 1840,
      "bull": 1841,
      "simple": 1842,
      "piece": 1843,
      "deleting": 1844,
      "description": 1845,
      "citation": 1846,
      "hole": 1847,
      "fac": 1848,
      "demo": 1849,
      "backgroundcolor": 1850,
      "indeed": 1851,
      "house": 1852,
      "racist": 1853,
      "dri": 1854,
      "million": 1855,
      "cir": 1856,
      "bring": 1857,
      "rights": 1858,
      "cha": 1859,
      "ker": 1860,
      "friends": 1861,
      "loc": 1862,
      "peri": 1863,
      "pret": 1864,
      "logical": 1865,
      "field": 1866,
      "abl": 1867,
      "inser": 1868,
      "ow": 1869,
      "theory": 1870,
      "night": 1871,
      "eli": 1872,
      "goes": 1873,
      "banned": 1874,
      "allowed": 1875,
      "table": 1876,
      "verifia": 1877,
      "special": 1878,
      "uploaded": 1879,
      "half": 1880,
      "san": 1881,
      "ternal": 1882,
      "gets": 1883,
      "vel": 1884,
      "internet": 1885,
      "university": 1886,
      "liter": 1887,
      "extre": 1888,
      "jour": 1889,
      "poor": 1890,
      "ived": 1891,
      "sockpuppe": 1892,
      "happened": 1893,
      "gra": 1894,
      "tes": 1895,
      "living": 1896,
      "decide": 1897,
      "nonsense": 1898,
      "zer": 1899,
      "third": 1900,
      "attention": 1901,
      "quick": 1902,
      "presid": 1903,
      "definite": 1904,
      "accep": 1905,
      "tice": 1906,
      "biased": 1907,
      "ub": 1908,
      "ream": 1909,
      "experiment": 1910,
      "ann": 1911,
      "cell": 1912,
      "justi": 1913,
      "unt": 1914,
      "seriously": 1915,
      "sla": 1916,
      "result": 1917,
      "from": 1918,
      "jewish": 1919,
      "spell": 1920,
      "tom": 1921,
      "click": 1922,
      "india": 1923,
      "flu": 1924,
      "build": 1925,
      "aaaaaaaa": 1926,
      "fur": 1927,
      "insul": 1928,
      "ini": 1929,
      "eg": 1930,
      "tor": 1931,
      "limit": 1932,
      "arab": 1933,
      "vote": 1934,
      "absol": 1935,
      "bias": 1936,
      "avail": 1937,
      "tags": 1938,
      "conne": 1939,
      "ident": 1940,
      "document": 1941,
      "ug": 1942,
      "ada": 1943,
      "wid": 1944,
      "proof": 1945,
      "heard": 1946,
      "near": 1947,
      "down": 1948,
      "naz": 1949,
      "aking": 1950,
      "ric": 1951,
      "asser": 1952,
      "period": 1953,
      "south": 1954,
      "rece": 1955,
      "longer": 1956,
      "edi": 1957,
      "cro": 1958,
      "external": 1959,
      "belong": 1960,
      "children": 1961,
      "gon": 1962,
      "helpful": 1963,
      "automa": 1964,
      "dest": 1965,
      "hes": 1966,
      "fc": 1967,
      "sal": 1968,
      "independ": 1969,
      "mas": 1970,
      "ined": 1971,
      "west": 1972,
      "wik": 1973,
      "inv": 1974,
      "acc": 1975,
      "should": 1976,
      "series": 1977,
      "native": 1978,
      "born": 1979,
      "significant": 1980,
      "ambig": 1981,
      "proposed": 1982,
      "east": 1983,
      "ming": 1984,
      "america": 1985,
      "supposed": 1986,
      "fric": 1987,
      "particip": 1988,
      "citations": 1989,
      "usually": 1990,
      "various": 1991,
      "ai": 1992,
      "dead": 1993,
      "jap": 1994,
      "ji": 1995,
      "stra": 1996,
      "album": 1997,
      "associ": 1998,
      "doubt": 1999,
      "shar": 2000,
      "quality": 2001,
      "fortun": 2002,
      "scre": 2003,
      "troll": 2004,
      "subst": 2005,
      "width": 2006,
      "develop": 2007,
      "honest": 2008,
      "ities": 2009,
      "ane": 2010,
      "lying": 2011,
      "lock": 2012,
      "ond": 2013,
      "mos": 2014,
      "apologi": 2015,
      "cing": 2016,
      "mass": 2017,
      "los": 2018,
      "contributing": 2019,
      "spam": 2020,
      "absolute": 2021,
      "cen": 2022,
      "hours": 2023,
      "establ": 2024,
      "adver": 2025,
      "ired": 2026,
      "format": 2027,
      "itch": 2028,
      "unblock": 2029,
      "ology": 2030,
      "ffic": 2031,
      "multiple": 2032,
      "oc": 2033,
      "creating": 2034,
      "jer": 2035,
      "online": 2036,
      "design": 2037,
      "tv": 2038,
      "ided": 2039,
      "mone": 2040,
      "sections": 2041,
      "occ": 2042,
      "schol": 2043,
      "pun": 2044,
      "republic": 2045,
      "available": 2046,
      "israel": 2047,
      "ney": 2048,
      "worked": 2049,
      "young": 2050,
      "poop": 2051,
      "japan": 2052,
      "culture": 2053,
      "milit": 2054,
      "break": 2055,
      "bab": 2056,
      "mkr": 2057,
      "lid": 2058,
      "bol": 2059,
      "bir": 2060,
      "among": 2061,
      "epis": 2062,
      "consist": 2063,
      "months": 2064,
      "ury": 2065,
      "obama": 2066,
      "acceptable": 2067,
      "couple": 2068,
      "program": 2069,
      "elli": 2070,
      "pig": 2071,
      "suc": 2072,
      "quot": 2073,
      "funny": 2074,
      "ake": 2075,
      "afric": 2076,
      "contest": 2077,
      "begin": 2078,
      "ons": 2079,
      "pay": 2080,
      "countries": 2081,
      "aid": 2082,
      "fs": 2083,
      "was": 2084,
      "fish": 2085,
      "xx": 2086,
      "educ": 2087,
      "reach": 2088,
      "mere": 2089,
      "business": 2090,
      "debate": 2091,
      "data": 2092,
      "manual": 2093,
      "creation": 2094,
      "izing": 2095,
      "push": 2096,
      "perfect": 2097,
      "deser": 2098,
      "automatically": 2099,
      "personally": 2100,
      "sl": 2101,
      "control": 2102,
      "has": 2103,
      "opinions": 2104,
      "orial": 2105,
      "concl": 2106,
      "teach": 2107,
      "phr": 2108,
      "mous": 2109,
      "fas": 2110,
      "compar": 2111,
      "afd": 2112,
      "eat": 2113,
      "stal": 2114,
      "transl": 2115,
      "statements": 2116,
      "had": 2117,
      "jes": 2118,
      "upon": 2119,
      "freed": 2120,
      "incorrect": 2121,
      "assume": 2122,
      "hur": 2123,
      "alth": 2124,
      "bast": 2125,
      "accepted": 2126,
      "ier": 2127,
      "ore": 2128,
      "active": 2129,
      "okay": 2130,
      "rand": 2131,
      "ient": 2132,
      "mc": 2133,
      "effect": 2134,
      "criticism": 2135,
      "tild": 2136,
      "wide": 2137,
      "vertical": 2138,
      "blog": 2139,
      "modern": 2140,
      "ox": 2141,
      "rap": 2142,
      "attempt": 2143,
      "fall": 2144,
      "separate": 2145,
      "wait": 2146,
      "historical": 2147,
      "stri": 2148,
      "primary": 2149,
      "early": 2150,
      "istic": 2151,
      "march": 2152,
      "shut": 2153,
      "sil": 2154,
      "anda": 2155,
      "details": 2156,
      "thod": 2157,
      "acade": 2158,
      "prove": 2159,
      "definitely": 2160,
      "money": 2161,
      "exc": 2162,
      "july": 2163,
      "ene": 2164,
      "difference": 2165,
      "north": 2166,
      "decision": 2167,
      "situation": 2168,
      "roll": 2169,
      "homo": 2170,
      "tildes": 2171,
      "tin": 2172,
      "understanding": 2173,
      "apparently": 2174,
      "cast": 2175,
      "thinking": 2176,
      "asking": 2177,
      "admit": 2178,
      "except": 2179,
      "elect": 2180,
      "purpose": 2181,
      "bullshit": 2182,
      "mes": 2183,
      "ose": 2184,
      "phys": 2185,
      "lu": 2186,
      "stan": 2187,
      "bru": 2188,
      "ential": 2189,
      "behavior": 2190,
      "ensive": 2191,
      "lier": 2192,
      "abuse": 2193,
      "pression": 2194,
      "compu": 2195,
      "violation": 2196,
      "freedom": 2197,
      "access": 2198,
      "mee": 2199,
      "solid": 2200,
      "giving": 2201,
      "pill": 2202,
      "alal": 2203,
      "popular": 2204,
      "indicate": 2205,
      "span": 2206,
      "sad": 2207,
      "unfortun": 2208,
      "gious": 2209,
      "tab": 2210,
      "harass": 2211,
      "infobox": 2212,
      "verticalalign": 2213,
      "ites": 2214,
      "extreme": 2215,
      "commit": 2216,
      "meant": 2217,
      "military": 2218,
      "sometimes": 2219,
      "ange": 2220,
      "region": 2221,
      "tagged": 2222,
      "tally": 2223,
      "dies": 2224,
      "disput": 2225,
      "crimin": 2226,
      "ril": 2227,
      "roman": 2228,
      "shi": 2229,
      "directly": 2230,
      "linked": 2231,
      "idiots": 2232,
      "oct": 2233,
      "ising": 2234,
      "behind": 2235,
      "focus": 2236,
      "huge": 2237,
      "changing": 2238,
      "cool": 2239,
      "jack": 2240,
      "stic": 2241,
      "outside": 2242,
      "ying": 2243,
      "batt": 2244,
      "sn": 2245,
      "rist": 2246,
      "looked": 2247,
      "august": 2248,
      "tives": 2249,
      "gave": 2250,
      "meet": 2251,
      "mine": 2252,
      "scientific": 2253,
      "islamic": 2254,
      "rationale": 2255,
      "lost": 2256,
      "rich": 2257,
      "groups": 2258,
      "arti": 2259,
      "offer": 2260,
      "rench": 2261,
      "journal": 2262,
      "iran": 2263,
      "repeated": 2264,
      "replace": 2265,
      "trad": 2266,
      "former": 2267,
      "blood": 2268,
      "damn": 2269,
      "sam": 2270,
      "tig": 2271,
      "propos": 2272,
      "flag": 2273,
      "yo": 2274,
      "tube": 2275,
      "controversi": 2276,
      "fuckfuck": 2277,
      "explaining": 2278,
      "ax": 2279,
      "conven": 2280,
      "bra": 2281,
      "vs": 2282,
      "expand": 2283,
      "drop": 2284,
      "ety": 2285,
      "anim": 2286,
      "amount": 2287,
      "itions": 2288,
      "ague": 2289,
      "fill": 2290,
      "zy": 2291,
      "wants": 2292,
      "president": 2293,
      "wing": 2294,
      "lest": 2295,
      "spo": 2296,
      "thes": 2297,
      "arbit": 2298,
      "earth": 2299,
      "bon": 2300,
      "bes": 2301,
      "rock": 2302,
      "dece": 2303,
      "only": 2304,
      "ified": 2305,
      "vio": 2306,
      "sep": 2307,
      "volution": 2308,
      "produce": 2309,
      "greek": 2310,
      "release": 2311,
      "murder": 2312,
      "dem": 2313,
      "gun": 2314,
      "diffic": 2315,
      "described": 2316,
      "stral": 2317,
      "umbers": 2318,
      "specifically": 2319,
      "dicks": 2320,
      "administrators": 2321,
      "majority": 2322,
      "ugh": 2323,
      "av": 2324,
      "fication": 2325,
      "wikipedian": 2326,
      "readers": 2327,
      "glad": 2328,
      "inclusion": 2329,
      "tm": 2330,
      "blocking": 2331,
      "trump": 2332,
      "totally": 2333,
      "takes": 2334,
      "fucker": 2335,
      "timate": 2336,
      "existing": 2337,
      "sun": 2338,
      "messages": 2339,
      "uary": 2340,
      "pan": 2341,
      "cases": 2342,
      "gro": 2343,
      "semi": 2344,
      "wast": 2345,
      "international": 2346,
      "court": 2347,
      "glo": 2348,
      "shall": 2349,
      "adverti": 2350,
      "barn": 2351,
      "require": 2352,
      "conom": 2353,
      "ttom": 2354,
      "gone": 2355,
      "disruptive": 2356,
      "error": 2357,
      "pictures": 2358,
      "indian": 2359,
      "bey": 2360,
      "ides": 2361,
      "bud": 2362,
      "rough": 2363,
      "liam": 2364,
      "contribute": 2365,
      "lin": 2366,
      "credi": 2367,
      "austral": 2368,
      "propag": 2369,
      "sible": 2370,
      "putting": 2371,
      "numbers": 2372,
      "anony": 2373,
      "sequ": 2374,
      "fire": 2375,
      "earlier": 2376,
      "town": 2377,
      "decided": 2378,
      "population": 2379,
      "further": 2380,
      "featur": 2381,
      "bother": 2382,
      "warring": 2383,
      "constructive": 2384,
      "fu": 2385,
      "very": 2386,
      "named": 2387,
      "possibly": 2388,
      "trou": 2389,
      "finally": 2390,
      "dic": 2391,
      "games": 2392,
      "nation": 2393,
      "particularly": 2394,
      "struct": 2395,
      "wash": 2396,
      "reported": 2397,
      "knows": 2398,
      "organization": 2399,
      "fit": 2400,
      "wind": 2401,
      "ession": 2402,
      "vir": 2403,
      "race": 2404,
      "absolutely": 2405,
      "demon": 2406,
      "econom": 2407,
      "killed": 2408,
      "figure": 2409,
      "uuuuuuuu": 2410,
      "nel": 2411,
      "treat": 2412,
      "french": 2413,
      "weight": 2414,
      "season": 2415,
      "nobody": 2416,
      "tool": 2417,
      "map": 2418,
      "tial": 2419,
      "listen": 2420,
      "religious": 2421,
      "parent": 2422,
      "blank": 2423,
      "police": 2424,
      "pillars": 2425,
      "tutorial": 2426,
      "hot": 2427,
      "water": 2428,
      "june": 2429,
      "yor": 2430,
      "neither": 2431,
      "tend": 2432,
      "ulous": 2433,
      "total": 2434,
      "arguments": 2435,
      "rs": 2436,
      "posting": 2437,
      "reader": 2438,
      "gives": 2439,
      "cribe": 2440,
      "willing": 2441,
      "ethnic": 2442,
      "jim": 2443,
      "tiz": 2444,
      "itate": 2445,
      "fd": 2446,
      "discussed": 2447,
      "leading": 2448,
      "moment": 2449,
      "youtube": 2450,
      "final": 2451,
      "china": 2452,
      "sounds": 2453,
      "cand": 2454,
      "product": 2455,
      "towards": 2456,
      "ode": 2457,
      "mistake": 2458,
      "computer": 2459,
      "dear": 2460,
      "lon": 2461,
      "kids": 2462,
      "wow": 2463,
      "upd": 2464,
      "individual": 2465,
      "unsigned": 2466,
      "frank": 2467,
      "boob": 2468,
      "independent": 2469,
      "chance": 2470,
      "service": 2471,
      "movie": 2472,
      "join": 2473,
      "object": 2474,
      "xic": 2475,
      "ering": 2476,
      "entirely": 2477,
      "referenced": 2478,
      "across": 2479,
      "luck": 2480,
      "chal": 2481,
      "january": 2482,
      "irrelevant": 2483,
      "bert": 2484,
      "front": 2485,
      "pal": 2486,
      "terrorism": 2487,
      "base": 2488,
      "father": 2489,
      "desp": 2490,
      "ship": 2491,
      "club": 2492,
      "fool": 2493,
      "jesus": 2494,
      "aff": 2495,
      "reasonable": 2496,
      "college": 2497,
      "legi": 2498,
      "seeing": 2499,
      "forward": 2500,
      "easy": 2501,
      "female": 2502,
      "asshole": 2503,
      "examples": 2504,
      "determin": 2505,
      "thern": 2506,
      "experience": 2507,
      "lists": 2508,
      "bc": 2509,
      "hat": 2510,
      "influ": 2511,
      "posts": 2512,
      "immedi": 2513,
      "anonymous": 2514,
      "tex": 2515,
      "about": 2516,
      "april": 2517,
      "tac": 2518,
      "match": 2519,
      "usa": 2520,
      "unfortunately": 2521,
      "antly": 2522,
      "yourself": 2523,
      "covered": 2524,
      "concerns": 2525,
      "gth": 2526,
      "complain": 2527,
      "circ": 2528,
      "grow": 2529,
      "ored": 2530,
      "relations": 2531,
      "ception": 2532,
      "reflect": 2533,
      "ech": 2534,
      "removal": 2535,
      "century": 2536,
      "missing": 2537,
      "encycloped": 2538,
      "oud": 2539,
      "advice": 2540,
      "wood": 2541,
      "nnnnnnnn": 2542,
      "imag": 2543,
      "capital": 2544,
      "ridic": 2545,
      "yyyyyyyy": 2546,
      "rit": 2547,
      "hen": 2548,
      "micha": 2549,
      "featured": 2550,
      "psy": 2551,
      "profession": 2552,
      "gas": 2553,
      "local": 2554,
      "soft": 2555,
      "pick": 2556,
      "standards": 2557,
      "birth": 2558,
      "prevent": 2559,
      "err": 2560,
      "size": 2561,
      "eeee": 2562,
      "events": 2563,
      "benef": 2564,
      "balls": 2565,
      "pread": 2566,
      "igno": 2567,
      "arily": 2568,
      "merge": 2569,
      "highly": 2570,
      "track": 2571,
      "disambig": 2572,
      "letter": 2573,
      "verifiable": 2574,
      "stern": 2575,
      "inappropriate": 2576,
      "chines": 2577,
      "merely": 2578,
      "bill": 2579,
      "nature": 2580,
      "battle": 2581,
      "wan": 2582,
      "mental": 2583,
      "favor": 2584,
      "priv": 2585,
      "david": 2586,
      "pointed": 2587,
      "protected": 2588,
      "retard": 2589,
      "bullies": 2590,
      "loy": 2591,
      "suspect": 2592,
      "bat": 2593,
      "controversial": 2594,
      "bin": 2595,
      "nove": 2596,
      "chinese": 2597,
      "agreed": 2598,
      "ws": 2599,
      "cccc": 2600,
      "hon": 2601,
      "met": 2602,
      "usive": 2603,
      "ford": 2604,
      "despite": 2605,
      "rela": 2606,
      "forum": 2607,
      "summar": 2608,
      "famili": 2609,
      "gent": 2610,
      "interpret": 2611,
      "geor": 2612,
      "constitu": 2613,
      "femin": 2614,
      "license": 2615,
      "notes": 2616,
      "publish": 2617,
      "nega": 2618,
      "inves": 2619,
      "enwikipediaorgwiki": 2620,
      "accounts": 2621,
      "christ": 2622,
      "hypo": 2623,
      "occur": 2624,
      "compe": 2625,
      "trust": 2626,
      "grad": 2627,
      "cant": 2628,
      "const": 2629,
      "outh": 2630,
      "easily": 2631,
      "december": 2632,
      "ried": 2633,
      "grand": 2634,
      "archive": 2635,
      "fed": 2636,
      "random": 2637,
      "racism": 2638,
      "septem": 2639,
      "diff": 2640,
      "itter": 2641,
      "ram": 2642,
      "recomm": 2643,
      "bullying": 2644,
      "results": 2645,
      "hhhh": 2646,
      "ana": 2647,
      "iss": 2648,
      "properly": 2649,
      "september": 2650,
      "chi": 2651,
      "obser": 2652,
      "movement": 2653,
      "mostly": 2654,
      "fre": 2655,
      "nu": 2656,
      "round": 2657,
      "supported": 2658,
      "tou": 2659,
      "familiar": 2660,
      "lad": 2661,
      "hitler": 2662,
      "barnstar": 2663,
      "kar": 2664,
      "ery": 2665,
      "train": 2666,
      "straight": 2667,
      "db": 2668,
      "beat": 2669,
      "btw": 2670,
      "types": 2671,
      "november": 2672,
      "basically": 2673,
      "sar": 2674,
      "requesting": 2675,
      "ester": 2676,
      "suit": 2677,
      "died": 2678,
      "label": 2679,
      "green": 2680,
      "paper": 2681,
      "substanti": 2682,
      "ober": 2683,
      "method": 2684,
      "nazi": 2685,
      "investig": 2686,
      "bold": 2687,
      "army": 2688,
      "cru": 2689,
      "terrorist": 2690,
      "concern": 2691,
      "catho": 2692,
      "mistak": 2693,
      "bastard": 2694,
      "ping": 2695,
      "intention": 2696,
      "played": 2697,
      "metal": 2698,
      "success": 2699,
      "stream": 2700,
      "peace": 2701,
      "ires": 2702,
      "categories": 2703,
      "labor": 2704,
      "ahead": 2705,
      "regist": 2706,
      "nar": 2707,
      "kid": 2708,
      "noted": 2709,
      "value": 2710,
      "basic": 2711,
      "difficult": 2712,
      "central": 2713,
      "explained": 2714,
      "decl": 2715,
      "places": 2716,
      "ware": 2717,
      "ino": 2718,
      "telling": 2719,
      "rfc": 2720,
      "blue": 2721,
      "alle": 2722,
      "conser": 2723,
      "western": 2724,
      "prior": 2725,
      "templates": 2726,
      "russian": 2727,
      "bottom": 2728,
      "campa": 2729,
      "ky": 2730,
      "edon": 2731,
      "importance": 2732,
      "utes": 2733,
      "ridiculous": 2734,
      "catholic": 2735,
      "excl": 2736,
      "techn": 2737,
      "swe": 2738,
      "study": 2739,
      "argue": 2740,
      "tivity": 2741,
      "hop": 2742,
      "somebody": 2743,
      "broad": 2744,
      "hum": 2745,
      "wers": 2746,
      "newsp": 2747,
      "ideas": 2748,
      "ati": 2749,
      "gress": 2750,
      "confirm": 2751,
      "york": 2752,
      "brain": 2753,
      "math": 2754,
      "natur": 2755,
      "acting": 2756,
      "health": 2757,
      "tests": 2758,
      "fixed": 2759,
      "cry": 2760,
      "society": 2761,
      "october": 2762,
      "padding": 2763,
      "valu": 2764,
      "code": 2765,
      "knew": 2766,
      "introduction": 2767,
      "episode": 2768,
      "usage": 2769,
      "propaganda": 2770,
      "discussions": 2771,
      "aids": 2772,
      "intelli": 2773,
      "grap": 2774,
      "laugh": 2775,
      "negative": 2776,
      "rant": 2777,
      "conclusion": 2778,
      "rate": 2779,
      "ffff": 2780,
      "newspap": 2781,
      "syn": 2782,
      "shown": 2783,
      "beyond": 2784,
      "bed": 2785,
      "room": 2786,
      "thats": 2787,
      "ener": 2788,
      "asing": 2789,
      "brit": 2790,
      "james": 2791,
      "ignore": 2792,
      "igh": 2793,
      "radical": 2794,
      "kkkk": 2795,
      "incident": 2796,
      "turned": 2797,
      "stub": 2798,
      "which": 2799,
      "ded": 2800,
      "concept": 2801,
      "describe": 2802,
      "weeks": 2803,
      "encour": 2804,
      "judge": 2805,
      "football": 2806,
      "vill": 2807,
      "wording": 2808,
      "feed": 2809,
      "pati": 2810,
      "princi": 2811,
      "squ": 2812,
      "model": 2813,
      "destroy": 2814,
      "frequ": 2815,
      "alternative": 2816,
      "spl": 2817,
      "wit": 2818,
      "ands": 2819,
      "became": 2820,
      "anymore": 2821,
      "asion": 2822,
      "basis": 2823,
      "compan": 2824,
      "numer": 2825,
      "ked": 2826,
      "send": 2827,
      "permission": 2828,
      "wondering": 2829,
      "share": 2830,
      "yuyuyuyu": 2831,
      "incre": 2832,
      "lence": 2833,
      "nomination": 2834,
      "campaign": 2835,
      "protection": 2836,
      "suggestion": 2837,
      "encyclopedic": 2838,
      "bag": 2839,
      "preced": 2840,
      "center": 2841,
      "released": 2842,
      "corpor": 2843,
      "positive": 2844,
      "speaking": 2845,
      "viet": 2846,
      "tytytyty": 2847,
      "road": 2848,
      "approach": 2849,
      "controversy": 2850,
      "claimed": 2851,
      "guideline": 2852,
      "finding": 2853,
      "stree": 2854,
      "european": 2855,
      "quotes": 2856,
      "candid": 2857,
      "verse": 2858,
      "ior": 2859,
      "febru": 2860,
      "magaz": 2861,
      "mir": 2862,
      "lots": 2863,
      "referring": 2864,
      "characters": 2865,
      "condu": 2866,
      "parts": 2867,
      "rug": 2868,
      "trouble": 2869,
      "february": 2870,
      "hies": 2871,
      "required": 2872,
      "challen": 2873,
      "phrase": 2874,
      "sell": 2875,
      "unsourced": 2876,
      "speech": 2877,
      "effort": 2878,
      "hol": 2879,
      "insert": 2880,
      "fast": 2881,
      "brought": 2882,
      "border": 2883,
      "wikipedians": 2884,
      "za": 2885,
      "cted": 2886,
      "gres": 2887,
      "concerned": 2888,
      "award": 2889,
      "island": 2890,
      "fle": 2891,
      "smi": 2892,
      "licit": 2893,
      "happens": 2894,
      "spread": 2895,
      "index": 2896,
      "bush": 2897,
      "spelling": 2898,
      "achi": 2899,
      "suffic": 2900,
      "discussing": 2901,
      "thous": 2902,
      "crapcrap": 2903,
      "sexist": 2904,
      "demonstr": 2905,
      "youfuck": 2906,
      "raid": 2907,
      "fran": 2908,
      "promise": 2909,
      "reality": 2910,
      "mate": 2911,
      "pective": 2912,
      "blp": 2913,
      "gold": 2914,
      "nonfree": 2915,
      "practice": 2916,
      "immediately": 2917,
      "americans": 2918,
      "nigga": 2919,
      "playing": 2920,
      "contribution": 2921,
      "thread": 2922,
      "through": 2923,
      "enter": 2924,
      "range": 2925,
      "isis": 2926,
      "surpr": 2927,
      "suggested": 2928,
      "sick": 2929,
      "serb": 2930,
      "twitter": 2931,
      "eye": 2932,
      "ously": 2933,
      "kh": 2934,
      "kat": 2935,
      "ases": 2936,
      "communic": 2937,
      "bom": 2938,
      "somewhere": 2939,
      "intended": 2940,
      "turk": 2941,
      "satis": 2942,
      "visit": 2943,
      "til": 2944,
      "wwwwwwww": 2945,
      "dig": 2946,
      "gin": 2947,
      "gene": 2948,
      "appreciated": 2949,
      "graphies": 2950,
      "requested": 2951,
      "choice": 2952,
      "watching": 2953,
      "tee": 2954,
      "hood": 2955,
      "amaz": 2956,
      "previously": 2957,
      "ordin": 2958,
      "apply": 2959,
      "lay": 2960,
      "kept": 2961,
      "aming": 2962,
      "ira": 2963,
      "pred": 2964,
      "length": 2965,
      "considering": 2966,
      "established": 2967,
      "engine": 2968,
      "sockpuppet": 2969,
      "george": 2970,
      "lives": 2971,
      "speedily": 2972,
      "presented": 2973,
      "limited": 2974,
      "christians": 2975,
      "warnings": 2976,
      "macedon": 2977,
      "evil": 2978,
      "tax": 2979,
      "wars": 2980,
      "submit": 2981,
      "starting": 2982,
      "ceed": 2983,
      "normal": 2984,
      "democr": 2985,
      "mexic": 2986,
      "lick": 2987,
      "showing": 2988,
      "beginning": 2989,
      "attrib": 2990,
      "sold": 2991,
      "factual": 2992,
      "losop": 2993,
      "spanish": 2994,
      "tay": 2995,
      "oppos": 2996,
      "whose": 2997,
      "wall": 2998,
      "japanese": 2999,
      "inte": 3000,
      "ado": 3001,
      "six": 3002,
      "ifor": 3003,
      "realize": 3004,
      "role": 3005,
      "exists": 3006,
      "meets": 3007,
      "coun": 3008,
      "hopefully": 3009,
      "commons": 3010,
      "threaten": 3011,
      "wt": 3012,
      "secre": 3013,
      "philosop": 3014,
      "pure": 3015,
      "adv": 3016,
      "citiz": 3017,
      "secondary": 3018,
      "bunch": 3019,
      "thetic": 3020,
      "update": 3021,
      "nominated": 3022,
      "thoughts": 3023,
      "extremely": 3024,
      "forget": 3025,
      "thinks": 3026,
      "doct": 3027,
      "students": 3028,
      "hob": 3029,
      "mart": 3030,
      "paul": 3031,
      "office": 3032,
      "moving": 3033,
      "disambiguation": 3034,
      "offensive": 3035,
      "tradition": 3036,
      "bil": 3037,
      "disgust": 3038,
      "contributors": 3039,
      "tivi": 3040,
      "agend": 3041,
      "files": 3042,
      "hab": 3043,
      "counter": 3044,
      "received": 3045,
      "stick": 3046,
      "dio": 3047,
      "hair": 3048,
      "regular": 3049,
      "ification": 3050,
      "failed": 3051,
      "academic": 3052,
      "worse": 3053,
      "dude": 3054,
      "brief": 3055,
      "gue": 3056,
      "eyes": 3057,
      "plus": 3058,
      "canada": 3059,
      "advertising": 3060,
      "choose": 3061,
      "photos": 3062,
      "palest": 3063,
      "claiming": 3064,
      "global": 3065,
      "conserva": 3066,
      "safe": 3067,
      "requests": 3068,
      "park": 3069,
      "mix": 3070,
      "fairly": 3071,
      "aspect": 3072,
      "topics": 3073,
      "citing": 3074,
      "michael": 3075,
      "blat": 3076,
      "alex": 3077,
      "pul": 3078,
      "bark": 3079,
      "accusations": 3080,
      "hun": 3081,
      "ik": 3082,
      "mig": 3083,
      "proposal": 3084,
      "biographies": 3085,
      "ern": 3086,
      "assist": 3087,
      "keeping": 3088,
      "african": 3089,
      "irish": 3090,
      "reviewed": 3091,
      "brown": 3092,
      "paki": 3093,
      "thor": 3094,
      "legitimate": 3095,
      "leaving": 3096,
      "revision": 3097,
      "peer": 3098,
      "deep": 3099,
      "save": 3100,
      "regardless": 3101,
      "additional": 3102,
      "lolo": 3103,
      "geo": 3104,
      "indust": 3105,
      "schools": 3106,
      "inge": 3107,
      "stood": 3108,
      "eve": 3109,
      "mel": 3110,
      "manner": 3111,
      "checking": 3112,
      "aging": 3113,
      "sha": 3114,
      "authority": 3115,
      "anci": 3116,
      "england": 3117,
      "kore": 3118,
      "william": 3119,
      "voc": 3120,
      "eral": 3121,
      "shot": 3122,
      "worthy": 3123,
      "zzzzzzzzzzzzzzzz": 3124,
      "liberal": 3125,
      "education": 3126,
      "cross": 3127,
      "germany": 3128,
      "gain": 3129,
      "minutes": 3130,
      "throw": 3131,
      "noti": 3132,
      "professional": 3133,
      "amed": 3134,
      "repeatedly": 3135,
      "rection": 3136,
      "adam": 3137,
      "famous": 3138,
      "occup": 3139,
      "itor": 3140,
      "sir": 3141,
      "behaviour": 3142,
      "kur": 3143,
      "pressed": 3144,
      "meas": 3145,
      "instance": 3146,
      "miss": 3147,
      "rfa": 3148,
      "marks": 3149,
      "maintain": 3150,
      "felt": 3151,
      "touch": 3152,
      "companies": 3153,
      "sli": 3154,
      "insist": 3155,
      "lets": 3156,
      "biography": 3157,
      "suggestions": 3158,
      "ugly": 3159,
      "ught": 3160,
      "arbitration": 3161,
      "distr": 3162,
      "logic": 3163,
      "phone": 3164,
      "ae": 3165,
      "oppose": 3166,
      "those": 3167,
      "areas": 3168,
      "energy": 3169,
      "rr": 3170,
      "bank": 3171,
      "bell": 3172,
      "politics": 3173,
      "websites": 3174,
      "andor": 3175,
      "raised": 3176,
      "archi": 3177,
      "ignorant": 3178,
      "baby": 3179,
      "reput": 3180,
      "closed": 3181,
      "brid": 3182,
      "rank": 3183,
      "hill": 3184,
      "tone": 3185,
      "circum": 3186,
      "recommend": 3187,
      "card": 3188,
      "connection": 3189,
      "pain": 3190,
      "ding": 3191,
      "union": 3192,
      "ports": 3193,
      "flo": 3194,
      "select": 3195,
      "confused": 3196,
      "diction": 3197,
      "orly": 3198,
      "shame": 3199,
      "nyan": 3200,
      "running": 3201,
      "rum": 3202,
      "refers": 3203,
      "anno": 3204,
      "butt": 3205,
      "turkey": 3206,
      "titles": 3207,
      "titude": 3208,
      "checked": 3209,
      "cocksuck": 3210,
      "once": 3211,
      "return": 3212,
      "atory": 3213,
      "libr": 3214,
      "critical": 3215,
      "uploading": 3216,
      "silly": 3217,
      "ancient": 3218,
      "emo": 3219,
      "tural": 3220,
      "cs": 3221,
      "tempor": 3222,
      "aaaaaaaaaaaaaaaa": 3223,
      "core": 3224,
      "php": 3225,
      "ext": 3226,
      "ev": 3227,
      "sat": 3228,
      "stating": 3229,
      "applic": 3230,
      "languages": 3231,
      "involve": 3232,
      "nick": 3233,
      "credit": 3234,
      "refrain": 3235,
      "matic": 3236,
      "resour": 3237,
      "remind": 3238,
      "crime": 3239,
      "france": 3240,
      "institu": 3241,
      "rible": 3242,
      "scholars": 3243,
      "sem": 3244,
      "held": 3245,
      "conspir": 3246,
      "heart": 3247,
      "commer": 3248,
      "alleg": 3249,
      "ured": 3250,
      "distin": 3251,
      "ald": 3252,
      "secur": 3253,
      "master": 3254,
      "onto": 3255,
      "street": 3256,
      "double": 3257,
      "arb": 3258,
      "includes": 3259,
      "truly": 3260,
      "evolution": 3261,
      "county": 3262,
      "persons": 3263,
      "hesitate": 3264,
      "fru": 3265,
      "kingdom": 3266,
      "brother": 3267,
      "gan": 3268,
      "stars": 3269,
      "contrad": 3270,
      "gab": 3271,
      "acknow": 3272,
      "instru": 3273,
      "sian": 3274,
      "food": 3275,
      "copyrighted": 3276,
      "terrorists": 3277,
      "nip": 3278,
      "andre": 3279,
      "mouth": 3280,
      "input": 3281,
      "sett": 3282,
      "development": 3283,
      "avi": 3284,
      "els": 3285,
      "voice": 3286,
      "hindu": 3287,
      "phili": 3288,
      "fellow": 3289,
      "jihad": 3290,
      "london": 3291,
      "gal": 3292,
      "stor": 3293,
      "ops": 3294,
      "anywhere": 3295,
      "bitches": 3296,
      "laws": 3297,
      "iiii": 3298,
      "dark": 3299,
      "magazine": 3300,
      "activi": 3301,
      "tired": 3302,
      "rious": 3303,
      "calls": 3304,
      "followed": 3305,
      "bn": 3306,
      "tten": 3307,
      "strongly": 3308,
      "referred": 3309,
      "suming": 3310,
      "scrip": 3311,
      "pron": 3312,
      "censor": 3313,
      "acts": 3314,
      "civility": 3315,
      "private": 3316,
      "condi": 3317,
      "besides": 3318,
      "perfectly": 3319,
      "writ": 3320,
      "natural": 3321,
      "agenda": 3322,
      "collabor": 3323,
      "depend": 3324,
      "paid": 3325,
      "shared": 3326,
      "hund": 3327,
      "modif": 3328,
      "augh": 3329,
      "building": 3330,
      "numerous": 3331,
      "missed": 3332,
      "higher": 3333,
      "oooooooo": 3334,
      "function": 3335,
      "hence": 3336,
      "sions": 3337,
      "fake": 3338,
      "weak": 3339,
      "mann": 3340,
      "prison": 3341,
      "updated": 3342,
      "split": 3343,
      "mam": 3344,
      "accused": 3345,
      "cere": 3346,
      "aring": 3347,
      "coverage": 3348,
      "aint": 3349,
      "prick": 3350,
      "hero": 3351,
      "hundred": 3352,
      "ano": 3353,
      "waste": 3354,
      "disgusting": 3355,
      "additions": 3356,
      "assess": 3357,
      "anth": 3358,
      "undo": 3359,
      "techno": 3360,
      "py": 3361,
      "utter": 3362,
      "likes": 3363,
      "ends": 3364,
      "scholar": 3365,
      "entially": 3366,
      "criminal": 3367,
      "security": 3368,
      "gor": 3369,
      "poll": 3370,
      "boys": 3371,
      "helpme": 3372,
      "loser": 3373,
      "lower": 3374,
      "ulations": 3375,
      "forts": 3376,
      "reland": 3377,
      "vey": 3378,
      "fringe": 3379,
      "reverts": 3380,
      "parents": 3381,
      "dir": 3382,
      "convers": 3383,
      "unk": 3384,
      "anybody": 3385,
      "pas": 3386,
      "territ": 3387,
      "retarded": 3388,
      "studies": 3389,
      "zed": 3390,
      "merged": 3391,
      "fighting": 3392,
      "ances": 3393,
      "foreign": 3394,
      "appeared": 3395,
      "translation": 3396,
      "itar": 3397,
      "too": 3398,
      "somehow": 3399,
      "expert": 3400,
      "misleading": 3401,
      "excuse": 3402,
      "worst": 3403,
      "redu": 3404,
      "medical": 3405,
      "consistent": 3406,
      "tism": 3407,
      "surely": 3408,
      "rul": 3409,
      "supporting": 3410,
      "champ": 3411,
      "plain": 3412,
      "initi": 3413,
      "adop": 3414,
      "rog": 3415,
      "perform": 3416,
      "fant": 3417,
      "fans": 3418,
      "efforts": 3419,
      "reports": 3420,
      "justice": 3421,
      "clarify": 3422,
      "chat": 3423,
      "zen": 3424,
      "dates": 3425,
      "sole": 3426,
      "somewhat": 3427,
      "identify": 3428,
      "structure": 3429,
      "depart": 3430,
      "useless": 3431,
      "mmmm": 3432,
      "nipple": 3433,
      "inno": 3434,
      "cher": 3435,
      "dict": 3436,
      "analys": 3437,
      "teen": 3438,
      "max": 3439,
      "helping": 3440,
      "sight": 3441,
      "harassment": 3442,
      "assi": 3443,
      "secret": 3444,
      "protest": 3445,
      "confirmed": 3446,
      "bye": 3447,
      "wikimedia": 3448,
      "extra": 3449,
      "armen": 3450,
      "cities": 3451,
      "interview": 3452,
      "listing": 3453,
      "easier": 3454,
      "rick": 3455,
      "gence": 3456,
      "nty": 3457,
      "proven": 3458,
      "solution": 3459,
      "resolution": 3460,
      "throughout": 3461,
      "ireland": 3462,
      "naming": 3463,
      "vili": 3464,
      "craft": 3465,
      "orship": 3466,
      "reached": 3467,
      "disputed": 3468,
      "minist": 3469,
      "standing": 3470,
      "sym": 3471,
      "tol": 3472,
      "ilt": 3473,
      "pointing": 3474,
      "sufficient": 3475,
      "him": 3476,
      "mach": 3477,
      "abor": 3478,
      "establish": 3479,
      "empire": 3480,
      "principle": 3481,
      "conduct": 3482,
      "hid": 3483,
      "rude": 3484,
      "mentions": 3485,
      "mainstream": 3486,
      "logged": 3487,
      "afraid": 3488,
      "royal": 3489,
      "their": 3490,
      "photograph": 3491,
      "bands": 3492,
      "thesis": 3493,
      "chick": 3494,
      "gots": 3495,
      "provi": 3496,
      "blocks": 3497,
      "clicking": 3498,
      "associated": 3499,
      "wol": 3500,
      "chap": 3501,
      "seemed": 3502,
      "explicit": 3503,
      "deserve": 3504,
      "smo": 3505,
      "honestly": 3506,
      "smell": 3507,
      "defend": 3508,
      "existence": 3509,
      "concerning": 3510,
      "worry": 3511,
      "requires": 3512,
      "ray": 3513,
      "suppose": 3514,
      "integr": 3515,
      "washing": 3516,
      "tour": 3517,
      "isation": 3518,
      "illust": 3519,
      "verify": 3520,
      "congr": 3521,
      "matters": 3522,
      "imagine": 3523,
      "errors": 3524,
      "originally": 3525,
      "waiting": 3526,
      "replaced": 3527,
      "apologize": 3528,
      "pushing": 3529,
      "station": 3530,
      "elsewhere": 3531,
      "radio": 3532,
      "contains": 3533,
      "acted": 3534,
      "drug": 3535,
      "era": 3536,
      "odd": 3537,
      "sle": 3538,
      "isms": 3539,
      "northern": 3540,
      "improving": 3541,
      "interpretation": 3542,
      "obs": 3543,
      "helps": 3544,
      "tition": 3545,
      "promote": 3546,
      "spirit": 3547,
      "bob": 3548,
      "domain": 3549,
      "thom": 3550,
      "before": 3551,
      "ssss": 3552,
      "channel": 3553,
      "subjects": 3554,
      "usual": 3555,
      "sides": 3556,
      "cele": 3557,
      "vince": 3558,
      "quickly": 3559,
      "participate": 3560,
      "furthermore": 3561,
      "russia": 3562,
      "insult": 3563,
      "ush": 3564,
      "sky": 3565,
      "literally": 3566,
      "aver": 3567,
      "gate": 3568,
      "career": 3569,
      "logo": 3570,
      "stitut": 3571,
      "contents": 3572,
      "continued": 3573,
      "dickhead": 3574,
      "skin": 3575,
      "identity": 3576,
      "ible": 3577,
      "reject": 3578,
      "grant": 3579,
      "necessarily": 3580,
      "records": 3581,
      "theories": 3582,
      "twice": 3583,
      "threats": 3584,
      "australia": 3585,
      "psycho": 3586,
      "comed": 3587,
      "homosexual": 3588,
      "commercial": 3589,
      "daily": 3590,
      "student": 3591,
      "atures": 3592,
      "hahahahahahahaha": 3593,
      "nearly": 3594,
      "stone": 3595,
      "canad": 3596,
      "ku": 3597,
      "league": 3598,
      "camp": 3599,
      "nia": 3600,
      "fective": 3601,
      "pathetic": 3602,
      "tagging": 3603,
      "israeli": 3604,
      "objective": 3605,
      "dia": 3606,
      "harm": 3607,
      "located": 3608,
      "lord": 3609,
      "uring": 3610,
      "both": 3611,
      "latin": 3612,
      "analysis": 3613,
      "vict": 3614,
      "careful": 3615,
      "mosca": 3616,
      "thy": 3617,
      "fra": 3618,
      "ffer": 3619,
      "keeps": 3620,
      "domin": 3621,
      "iv": 3622,
      "alalalal": 3623,
      "fuckfuckfuckfuck": 3624,
      "repeat": 3625,
      "excel": 3626,
      "equal": 3627,
      "assuming": 3628,
      "responsible": 3629,
      "nes": 3630,
      "opposed": 3631,
      "coll": 3632,
      "sentences": 3633,
      "justify": 3634,
      "credible": 3635,
      "newspaper": 3636,
      "fear": 3637,
      "appeal": 3638,
      "restored": 3639,
      "hardly": 3640,
      "asty": 3641,
      "understood": 3642,
      "experienced": 3643,
      "announ": 3644,
      "draw": 3645,
      "location": 3646,
      "ades": 3647,
      "cil": 3648,
      "kick": 3649,
      "alban": 3650,
      "robert": 3651,
      "pse": 3652,
      "exten": 3653,
      "civili": 3654,
      "nik": 3655,
      "ston": 3656,
      "gri": 3657,
      "moon": 3658,
      "gry": 3659,
      "window": 3660,
      "scr": 3661,
      "prose": 3662,
      "latest": 3663,
      "cultural": 3664,
      "peter": 3665,
      "shortly": 3666,
      "frequently": 3667,
      "conspiracy": 3668,
      "wed": 3669,
      "ander": 3670,
      "forced": 3671,
      "zero": 3672,
      "software": 3673,
      "ially": 3674,
      "kin": 3675,
      "nut": 3676,
      "vv": 3677,
      "cks": 3678,
      "pled": 3679,
      "llll": 3680,
      "copied": 3681,
      "defined": 3682,
      "mentioning": 3683,
      "operation": 3684,
      "statis": 3685,
      "ls": 3686,
      "eventually": 3687,
      "figures": 3688,
      "arbcom": 3689,
      "writer": 3690,
      "polish": 3691,
      "committee": 3692,
      "champion": 3693,
      "slight": 3694,
      "ophi": 3695,
      "califor": 3696,
      "dream": 3697,
      "rot": 3698,
      "ental": 3699,
      "minority": 3700,
      "jay": 3701,
      "quoted": 3702,
      "relative": 3703,
      "thousands": 3704,
      "cel": 3705,
      "som": 3706,
      "conver": 3707,
      "gotten": 3708,
      "caused": 3709,
      "reads": 3710,
      "affect": 3711,
      "technical": 3712,
      "host": 3713,
      "fault": 3714,
      "busy": 3715,
      "plot": 3716,
      "wife": 3717,
      "addressed": 3718,
      "verifiability": 3719,
      "latter": 3720,
      "vor": 3721,
      "forces": 3722,
      "forms": 3723,
      "ancest": 3724,
      "complex": 3725,
      "surprised": 3726,
      "library": 3727,
      "correctly": 3728,
      "opening": 3729,
      "oil": 3730,
      "reve": 3731,
      "aries": 3732,
      "experimenting": 3733,
      "tun": 3734,
      "forman": 3735,
      "guard": 3736,
      "everybody": 3737,
      "association": 3738,
      "dol": 3739,
      "quit": 3740,
      "aka": 3741,
      "killing": 3742,
      "profess": 3743,
      "reviews": 3744,
      "criterion": 3745,
      "express": 3746,
      "providing": 3747,
      "dddd": 3748,
      "rian": 3749,
      "rative": 3750,
      "survi": 3751,
      "drive": 3752,
      "cis": 3753,
      "gs": 3754,
      "smart": 3755,
      "belongs": 3756,
      "seven": 3757,
      "apart": 3758,
      "strange": 3759,
      "election": 3760,
      "incid": 3761,
      "rewrite": 3762,
      "soviet": 3763,
      "player": 3764,
      "ership": 3765,
      "htm": 3766,
      "tan": 3767,
      "fundam": 3768,
      "pussy": 3769,
      "mun": 3770,
      "ination": 3771,
      "ato": 3772,
      "ifies": 3773,
      "talkpage": 3774,
      "parties": 3775,
      "noticeboard": 3776,
      "gggg": 3777,
      "pakistan": 3778,
      "sca": 3779,
      "widely": 3780,
      "quran": 3781,
      "warned": 3782,
      "drink": 3783,
      "network": 3784,
      "influence": 3785,
      "delay": 3786,
      "iron": 3787,
      "mongo": 3788,
      "foundation": 3789,
      "sec": 3790,
      "fox": 3791,
      "contributor": 3792,
      "potential": 3793,
      "tayyoung": 3794,
      "userpage": 3795,
      "verified": 3796,
      "tacos": 3797,
      "anas": 3798,
      "poo": 3799,
      "brand": 3800,
      "being": 3801,
      "wales": 3802,
      "impression": 3803,
      "spent": 3804,
      "norm": 3805,
      "confusing": 3806,
      "films": 3807,
      "nd": 3808,
      "stands": 3809,
      "steve": 3810,
      "faggots": 3811,
      "provides": 3812,
      "cens": 3813,
      "division": 3814,
      "greater": 3815,
      "relationship": 3816,
      "feedback": 3817,
      "scot": 3818,
      "goal": 3819,
      "exe": 3820,
      "vices": 3821,
      "desk": 3822,
      "rare": 3823,
      "bid": 3824,
      "dealing": 3825,
      "occasion": 3826,
      "kno": 3827,
      "ari": 3828,
      "degree": 3829,
      "entries": 3830,
      "agon": 3831,
      "motiv": 3832,
      "dyk": 3833,
      "authors": 3834,
      "ski": 3835,
      "loss": 3836,
      "began": 3837,
      "athe": 3838,
      "attitude": 3839,
      "hunt": 3840,
      "propose": 3841,
      "raise": 3842,
      "voted": 3843,
      "dictionary": 3844,
      "ders": 3845,
      "plenty": 3846,
      "christianity": 3847,
      "preceding": 3848,
      "task": 3849,
      "negro": 3850,
      "holy": 3851,
      "belief": 3852,
      "versions": 3853,
      "mistakes": 3854,
      "till": 3855,
      "politic": 3856,
      "specified": 3857,
      "hands": 3858,
      "grammar": 3859,
      "ues": 3860,
      "benefit": 3861,
      "california": 3862,
      "minim": 3863,
      "reasoning": 3864,
      "vit": 3865,
      "blind": 3866,
      "vandalizing": 3867,
      "facebook": 3868,
      "dc": 3869,
      "ophob": 3870,
      "uted": 3871,
      "bridge": 3872,
      "conversation": 3873,
      "nom": 3874,
      "liver": 3875,
      "precise": 3876,
      "attempts": 3877,
      "anon": 3878,
      "bible": 3879,
      "render": 3880,
      "suggesting": 3881,
      "mount": 3882,
      "knowing": 3883,
      "neutrality": 3884,
      "artist": 3885,
      "slo": 3886,
      "weird": 3887,
      "confusion": 3888,
      "turkish": 3889,
      "gender": 3890,
      "cratic": 3891,
      "assert": 3892,
      "uuuuuuuuuuuuuuuu": 3893,
      "bomb": 3894,
      "federal": 3895,
      "classi": 3896,
      "detailed": 3897,
      "significance": 3898,
      "flow": 3899,
      "wis": 3900,
      "restr": 3901,
      "grade": 3902,
      "nations": 3903,
      "individuals": 3904,
      "hide": 3905,
      "perspective": 3906,
      "queen": 3907,
      "kie": 3908,
      "fuckin": 3909,
      "licens": 3910,
      "council": 3911,
      "conservative": 3912,
      "kam": 3913,
      "odes": 3914,
      "effective": 3915,
      "crazy": 3916,
      "lee": 3917,
      "chron": 3918,
      "ignored": 3919,
      "village": 3920,
      "votes": 3921,
      "summaries": 3922,
      "impossible": 3923,
      "nas": 3924,
      "volunt": 3925,
      "players": 3926,
      "contrary": 3927,
      "lia": 3928,
      "morning": 3929,
      "formance": 3930,
      "asia": 3931,
      "boo": 3932,
      "folks": 3933,
      "explo": 3934,
      "alleged": 3935,
      "illegal": 3936,
      "shor": 3937,
      "shop": 3938,
      "blatant": 3939,
      "dut": 3940,
      "tam": 3941,
      "mathe": 3942,
      "valent": 3943,
      "declar": 3944,
      "kills": 3945,
      "humanity": 3946,
      "print": 3947,
      "izations": 3948,
      "smith": 3949,
      "excellent": 3950,
      "citizens": 3951,
      "involvement": 3952,
      "target": 3953,
      "inside": 3954,
      "asp": 3955,
      "river": 3956,
      "urb": 3957,
      "spac": 3958,
      "deliber": 3959,
      "spend": 3960,
      "button": 3961,
      "songs": 3962,
      "bound": 3963,
      "cust": 3964,
      "lt": 3965,
      "feeling": 3966,
      "ida": 3967,
      "archives": 3968,
      "leader": 3969,
      "production": 3970,
      "virt": 3971,
      "ica": 3972,
      "systems": 3973,
      "ffy": 3974,
      "indexphp": 3975,
      "department": 3976,
      "cia": 3977,
      "agi": 3978,
      "persist": 3979,
      "sports": 3980,
      "alo": 3981,
      "industry": 3982,
      "engage": 3983,
      "rass": 3984,
      "them": 3985,
      "mies": 3986,
      "poses": 3987,
      "africa": 3988,
      "ek": 3989,
      "supre": 3990,
      "proced": 3991,
      "zard": 3992,
      "lived": 3993,
      "applied": 3994,
      "canadian": 3995,
      "nasty": 3996,
      "becoming": 3997,
      "heading": 3998,
      "danger": 3999,
      "compre": 4000,
      "cheese": 4001,
      "promin": 4002,
      "demand": 4003,
      "nnnnnnnnnnnnnnnn": 4004,
      "locks": 4005,
      "tttt": 4006,
      "drama": 4007,
      "employ": 4008,
      "df": 4009,
      "egy": 4010,
      "vile": 4011,
      "sincere": 4012,
      "forth": 4013,
      "micro": 4014,
      "jones": 4015,
      "slow": 4016,
      "such": 4017,
      "uded": 4018,
      "learning": 4019,
      "auto": 4020,
      "passed": 4021,
      "practic": 4022,
      "literature": 4023,
      "opport": 4024,
      "censorship": 4025,
      "gam": 4026,
      "attr": 4027,
      "broken": 4028,
      "yyyyyyyyyyyyyyyy": 4029,
      "envi": 4030,
      "myth": 4031,
      "wild": 4032,
      "joe": 4033,
      "agreement": 4034,
      "wishes": 4035,
      "croati": 4036,
      "palestin": 4037,
      "invent": 4038,
      "compromise": 4039,
      "intel": 4040,
      "linking": 4041,
      "remains": 4042,
      "hurt": 4043,
      "violence": 4044,
      "emphas": 4045,
      "screen": 4046,
      "hr": 4047,
      "ix": 4048,
      "mediation": 4049,
      "ises": 4050,
      "liar": 4051,
      "symp": 4052,
      "attacking": 4053,
      "comparison": 4054,
      "arm": 4055,
      "bear": 4056,
      "philipp": 4057,
      "yer": 4058,
      "curious": 4059,
      "trib": 4060,
      "rial": 4061,
      "vari": 4062,
      "unity": 4063,
      "learned": 4064,
      "burn": 4065,
      "continues": 4066,
      "gressive": 4067,
      "ological": 4068,
      "meat": 4069,
      "forgot": 4070,
      "telev": 4071,
      "beliefs": 4072,
      "accident": 4073,
      "treated": 4074,
      "draft": 4075,
      "massive": 4076,
      "reporting": 4077,
      "carry": 4078,
      "ager": 4079,
      "rail": 4080,
      "friendly": 4081,
      "largest": 4082,
      "holder": 4083,
      "tomor": 4084,
      "iraq": 4085,
      "jump": 4086,
      "attacked": 4087,
      "resid": 4088,
      "altered": 4089,
      "suffer": 4090,
      "phil": 4091,
      "built": 4092,
      "restore": 4093,
      "disputes": 4094,
      "lor": 4095,
      "manage": 4096,
      "signature": 4097,
      "lose": 4098,
      "favour": 4099,
      "gang": 4100,
      "aside": 4101,
      "arguing": 4102,
      "fantas": 4103,
      "dun": 4104,
      "anced": 4105,
      "activity": 4106,
      "ural": 4107,
      "responding": 4108,
      "physical": 4109,
      "communist": 4110,
      "washington": 4111,
      "portal": 4112,
      "buy": 4113,
      "species": 4114,
      "geno": 4115,
      "expected": 4116,
      "richard": 4117,
      "allegations": 4118,
      "bare": 4119,
      "forever": 4120,
      "huh": 4121,
      "tomorrow": 4122,
      "suggests": 4123,
      "virgin": 4124,
      "yester": 4125,
      "britain": 4126,
      "hack": 4127,
      "ium": 4128,
      "asian": 4129,
      "noes": 4130,
      "blame": 4131,
      "colon": 4132,
      "bananas": 4133,
      "heads": 4134,
      "antisemi": 4135,
      "typical": 4136,
      "suitable": 4137,
      "temporary": 4138,
      "aus": 4139,
      "hil": 4140,
      "jac": 4141,
      "sake": 4142,
      "corrected": 4143,
      "italian": 4144,
      "average": 4145,
      "fly": 4146,
      "stage": 4147,
      "medic": 4148,
      "episodes": 4149,
      "eastern": 4150,
      "unblocked": 4151,
      "unnecessary": 4152,
      "warrant": 4153,
      "element": 4154,
      "intelligence": 4155,
      "achieve": 4156,
      "novel": 4157,
      "balance": 4158,
      "environ": 4159,
      "yesterday": 4160,
      "ria": 4161,
      "graphic": 4162,
      "violate": 4163,
      "australian": 4164,
      "holo": 4165,
      "trade": 4166,
      "victi": 4167,
      "improvement": 4168,
      "cup": 4169,
      "ias": 4170,
      "vast": 4171,
      "advance": 4172,
      "dor": 4173,
      "sele": 4174,
      "powers": 4175,
      "berg": 4176,
      "catch": 4177,
      "cellpadding": 4178,
      "apologies": 4179,
      "youtubecom": 4180,
      "rou": 4181,
      "equi": 4182,
      "dirty": 4183,
      "smells": 4184,
      "daugh": 4185,
      "spot": 4186,
      "stopped": 4187,
      "overall": 4188,
      "encourage": 4189,
      "fred": 4190,
      "option": 4191,
      "marri": 4192,
      "assump": 4193,
      "bay": 4194,
      "sr": 4195,
      "abag": 4196,
      "intend": 4197,
      "carefully": 4198,
      "editorial": 4199,
      "mand": 4200,
      "congress": 4201,
      "kets": 4202,
      "plement": 4203,
      "clue": 4204,
      "older": 4205,
      "planet": 4206,
      "registered": 4207,
      "congrat": 4208,
      "inten": 4209,
      "paed": 4210,
      "founded": 4211,
      "puppet": 4212,
      "compared": 4213,
      "corrup": 4214,
      "angry": 4215,
      "specify": 4216,
      "redirects": 4217,
      "peoples": 4218,
      "projects": 4219,
      "hoo": 4220,
      "erson": 4221,
      "feature": 4222,
      "portion": 4223,
      "symbol": 4224,
      "gt": 4225,
      "hall": 4226,
      "ppl": 4227,
      "arrest": 4228,
      "biggest": 4229,
      "lady": 4230,
      "amazing": 4231,
      "sche": 4232,
      "vies": 4233,
      "proud": 4234,
      "resolved": 4235,
      "toler": 4236,
      "teabag": 4237,
      "bow": 4238,
      "cold": 4239,
      "attempting": 4240,
      "ambigu": 4241,
      "investigation": 4242,
      "ining": 4243,
      "stories": 4244,
      "hibit": 4245,
      "dise": 4246,
      "scru": 4247,
      "swed": 4248,
      "restric": 4249,
      "lou": 4250,
      "dee": 4251,
      "becomes": 4252,
      "supp": 4253,
      "treatment": 4254,
      "hypocr": 4255,
      "dup": 4256,
      "fing": 4257,
      "jar": 4258,
      "justified": 4259,
      "census": 4260,
      "vise": 4261,
      "height": 4262,
      "dad": 4263,
      "gov": 4264,
      "genre": 4265,
      "ips": 4266,
      "mainly": 4267,
      "charge": 4268,
      "responded": 4269,
      "trolling": 4270,
      "ile": 4271,
      "consequ": 4272,
      "larger": 4273,
      "improved": 4274,
      "television": 4275,
      "cab": 4276,
      "phen": 4277,
      "expanded": 4278,
      "tc": 4279,
      "seek": 4280,
      "freezer": 4281,
      "complaint": 4282,
      "mathman": 4283,
      "pet": 4284,
      "ula": 4285,
      "permit": 4286,
      "fucksex": 4287,
      "crack": 4288,
      "physics": 4289,
      "constantly": 4290,
      "vag": 4291,
      "chic": 4292,
      "edu": 4293,
      "sey": 4294,
      "unlike": 4295,
      "weap": 4296,
      "persian": 4297,
      "azi": 4298,
      "elimin": 4299,
      "opposite": 4300,
      "youtubecomwatch": 4301,
      "vy": 4302,
      "orph": 4303,
      "perman": 4304,
      "market": 4305,
      "determine": 4306,
      "yourselfgo": 4307,
      "jam": 4308,
      "anch": 4309,
      "mike": 4310,
      "rating": 4311,
      "vation": 4312,
      "annoying": 4313,
      "hus": 4314,
      "thre": 4315,
      "than": 4316,
      "colum": 4317,
      "avy": 4318,
      "chicken": 4319,
      "reveal": 4320,
      "submission": 4321,
      "publication": 4322,
      "paste": 4323,
      "budd": 4324,
      "innocent": 4325,
      "remarks": 4326,
      "undue": 4327,
      "pppp": 4328,
      "genocide": 4329,
      "pleas": 4330,
      "informed": 4331,
      "finan": 4332,
      "sourcing": 4333,
      "unique": 4334,
      "developed": 4335,
      "yuyuyuyuyuyuyuyu": 4336,
      "licensed": 4337,
      "wrest": 4338,
      "unable": 4339,
      "tray": 4340,
      "applies": 4341,
      "relation": 4342,
      "tools": 4343,
      "aton": 4344,
      "whoever": 4345,
      "frustr": 4346,
      "hits": 4347,
      "windexphp": 4348,
      "soever": 4349,
      "heavy": 4350,
      "formal": 4351,
      "bollocks": 4352,
      "explicitly": 4353,
      "progress": 4354,
      "stein": 4355,
      "philosophy": 4356,
      "aven": 4357,
      "eved": 4358,
      "gall": 4359,
      "moral": 4360,
      "celebr": 4361,
      "urs": 4362,
      "appearance": 4363,
      "constitution": 4364,
      "tytytytytytytyty": 4365,
      "oting": 4366,
      "agre": 4367,
      "beau": 4368,
      "violations": 4369,
      "collection": 4370,
      "lingu": 4371,
      "slightly": 4372,
      "awards": 4373,
      "ske": 4374,
      "placing": 4375,
      "supports": 4376,
      "jimbo": 4377,
      "normally": 4378,
      "chie": 4379,
      "direction": 4380,
      "graphical": 4381,
      "bbc": 4382,
      "custom": 4383,
      "inaccurate": 4384,
      "sea": 4385,
      "existed": 4386,
      "controll": 4387,
      "cleanup": 4388,
      "district": 4389,
      "hundreds": 4390,
      "edition": 4391,
      "tern": 4392,
      "aspects": 4393,
      "mut": 4394,
      "letting": 4395,
      "successful": 4396,
      "resources": 4397,
      "resh": 4398,
      "entit": 4399,
      "bloody": 4400,
      "interpre": 4401,
      "turns": 4402,
      "southern": 4403,
      "ners": 4404,
      "otic": 4405,
      "sue": 4406,
      "historians": 4407,
      "wwwyoutubecomwatch": 4408,
      "ference": 4409,
      "accuracy": 4410,
      "gur": 4411,
      "pis": 4412,
      "arms": 4413,
      "opposition": 4414,
      "spin": 4415,
      "kel": 4416,
      "ensure": 4417,
      "mechan": 4418,
      "display": 4419,
      "formed": 4420,
      "showed": 4421,
      "ville": 4422,
      "scene": 4423,
      "organizations": 4424,
      "paragraphs": 4425,
      "moth": 4426,
      "coi": 4427,
      "creator": 4428,
      "whatsoever": 4429,
      "strict": 4430,
      "recognized": 4431,
      "erever": 4432,
      "chester": 4433,
      "unclear": 4434,
      "jose": 4435,
      "differences": 4436,
      "damage": 4437,
      "suic": 4438,
      "formatting": 4439,
      "candidates": 4440,
      "revolution": 4441,
      "objection": 4442,
      "republican": 4443,
      "frankly": 4444,
      "dep": 4445,
      "finished": 4446,
      "positions": 4447,
      "fraud": 4448,
      "bg": 4449,
      "fro": 4450,
      "hoax": 4451,
      "happening": 4452,
      "enwikipediaorgwindexphp": 4453,
      "pace": 4454,
      "males": 4455,
      "intent": 4456,
      "prime": 4457,
      "vised": 4458,
      "contributed": 4459,
      "horse": 4460,
      "eeeeeeee": 4461,
      "crapcrapcrapcrap": 4462,
      "tran": 4463,
      "jeff": 4464,
      "encing": 4465,
      "produced": 4466,
      "universe": 4467,
      "iranian": 4468,
      "traditional": 4469,
      "stitutes": 4470,
      "las": 4471,
      "racial": 4472,
      "owner": 4473,
      "philippines": 4474,
      "atch": 4475,
      "vest": 4476,
      "categor": 4477,
      "script": 4478,
      "sud": 4479,
      "pray": 4480,
      "historic": 4481,
      "technology": 4482,
      "profile": 4483,
      "izer": 4484,
      "promotional": 4485,
      "contradic": 4486,
      "professor": 4487,
      "ices": 4488,
      "plant": 4489,
      "jective": 4490,
      "animal": 4491,
      "economic": 4492,
      "extensive": 4493,
      "imo": 4494,
      "prepar": 4495,
      "voting": 4496,
      "afgh": 4497,
      "commonly": 4498,
      "greg": 4499,
      "didnt": 4500,
      "xxxx": 4501,
      "deserves": 4502,
      "wtf": 4503,
      "caust": 4504,
      "administ": 4505,
      "anime": 4506,
      "resolve": 4507,
      "doctor": 4508,
      "cocksucker": 4509,
      "pin": 4510,
      "accusing": 4511,
      "designed": 4512,
      "victims": 4513,
      "reser": 4514,
      "item": 4515,
      "vention": 4516,
      "hahaha": 4517,
      "garian": 4518,
      "jen": 4519,
      "mill": 4520,
      "mative": 4521,
      "charles": 4522,
      "accusation": 4523,
      "polite": 4524,
      "scar": 4525,
      "tells": 4526,
      "bac": 4527,
      "zo": 4528,
      "cise": 4529,
      "colour": 4530,
      "trip": 4531,
      "promotion": 4532,
      "objections": 4533,
      "intellect": 4534,
      "tian": 4535,
      "proceed": 4536,
      "serve": 4537,
      "genu": 4538,
      "victim": 4539,
      "stalking": 4540,
      "gment": 4541,
      "travel": 4542,
      "assertion": 4543,
      "pronoun": 4544,
      "thomas": 4545,
      "nis": 4546,
      "crimes": 4547,
      "martin": 4548,
      "follows": 4549,
      "meeting": 4550,
      "cccccccc": 4551,
      "discover": 4552,
      "command": 4553,
      "purposes": 4554,
      "accuse": 4555,
      "bish": 4556,
      "gfd": 4557,
      "pc": 4558,
      "holes": 4559,
      "bie": 4560,
      "prophe": 4561,
      "witness": 4562,
      "hmm": 4563,
      "compare": 4564,
      "documented": 4565,
      "honor": 4566,
      "same": 4567,
      "ull": 4568,
      "quar": 4569,
      "ryan": 4570,
      "compli": 4571,
      "productive": 4572,
      "define": 4573,
      "itive": 4574,
      "pes": 4575,
      "enforce": 4576,
      "mao": 4577,
      "interests": 4578,
      "violating": 4579,
      "documents": 4580,
      "democratic": 4581,
      "animals": 4582,
      "ater": 4583,
      "implement": 4584,
      "rational": 4585,
      "reaction": 4586,
      "fiction": 4587,
      "officially": 4588,
      "genuine": 4589,
      "trash": 4590,
      "married": 4591,
      "whereas": 4592,
      "html": 4593,
      "kan": 4594,
      "subsequ": 4595,
      "balanced": 4596,
      "largely": 4597,
      "scientists": 4598,
      "wwwwwwwwwwwwwwww": 4599,
      "dare": 4600,
      "pack": 4601,
      "incorpor": 4602,
      "movies": 4603,
      "rubb": 4604,
      "chart": 4605,
      "rob": 4606,
      "hion": 4607,
      "activities": 4608,
      "watt": 4609,
      "unknown": 4610,
      "usertalk": 4611,
      "allows": 4612,
      "impact": 4613,
      "jon": 4614,
      "plat": 4615,
      "prince": 4616,
      "measure": 4617,
      "scruffy": 4618,
      "hang": 4619,
      "helped": 4620,
      "tiful": 4621,
      "immig": 4622,
      "recognize": 4623,
      "initial": 4624,
      "arbitr": 4625,
      "sleep": 4626,
      "ib": 4627,
      "turning": 4628,
      "products": 4629,
      "gil": 4630,
      "istan": 4631,
      "duplic": 4632,
      "theless": 4633,
      "mast": 4634,
      "paint": 4635,
      "punk": 4636,
      "marriage": 4637,
      "khan": 4638,
      "tist": 4639,
      "having": 4640,
      "rated": 4641,
      "arri": 4642,
      "breed": 4643,
      "niggas": 4644,
      "millions": 4645,
      "effects": 4646,
      "arrog": 4647,
      "sia": 4648,
      "neigh": 4649,
      "shock": 4650,
      "mistaken": 4651,
      "mamas": 4652,
      "flight": 4653,
      "recall": 4654,
      "antic": 4655,
      "cost": 4656,
      "handle": 4657,
      "defense": 4658,
      "distrib": 4659,
      "apology": 4660,
      "identified": 4661,
      "switch": 4662,
      "ancestry": 4663,
      "holocaust": 4664,
      "remark": 4665,
      "youi": 4666,
      "path": 4667,
      "bles": 4668,
      "breaking": 4669,
      "thorough": 4670,
      "instructions": 4671,
      "iers": 4672,
      "kee": 4673,
      "manip": 4674,
      "fucked": 4675,
      "letters": 4676,
      "brow": 4677,
      "deny": 4678,
      "hhhhhhhh": 4679,
      "lip": 4680,
      "cares": 4681,
      "aren": 4682,
      "freely": 4683,
      "trivi": 4684,
      "insulting": 4685,
      "advoc": 4686,
      "ids": 4687,
      "tained": 4688,
      "challenge": 4689,
      "skills": 4690,
      "newcom": 4691,
      "gfdl": 4692,
      "oz": 4693,
      "collect": 4694,
      "strate": 4695,
      "territory": 4696,
      "machine": 4697,
      "wizard": 4698,
      "tele": 4699,
      "actor": 4700,
      "expan": 4701,
      "admitted": 4702,
      "daughter": 4703,
      "ongoing": 4704,
      "abe": 4705,
      "boxes": 4706,
      "equally": 4707,
      "volunte": 4708,
      "opportunity": 4709,
      "agrees": 4710,
      "dani": 4711,
      "gw": 4712,
      "thro": 4713,
      "ignorance": 4714,
      "dogs": 4715,
      "fashion": 4716,
      "sac": 4717,
      "esti": 4718,
      "unit": 4719,
      "gie": 4720,
      "services": 4721,
      "walk": 4722,
      "sockpuppetry": 4723,
      "twi": 4724,
      "ingu": 4725,
      "commentary": 4726,
      "vandals": 4727,
      "iety": 4728,
      "dated": 4729,
      "ius": 4730,
      "sect": 4731,
      "uncivil": 4732,
      "ilty": 4733,
      "fasci": 4734,
      "boner": 4735,
      "hoping": 4736,
      "ich": 4737,
      "wank": 4738,
      "lede": 4739,
      "qualify": 4740,
      "ignoring": 4741,
      "dedic": 4742,
      "fif": 4743,
      "von": 4744,
      "freak": 4745,
      "essentially": 4746,
      "titled": 4747,
      "colored": 4748,
      "nazis": 4749,
      "hic": 4750,
      "entious": 4751,
      "merging": 4752,
      "crow": 4753,
      "maps": 4754,
      "uh": 4755,
      "eland": 4756,
      "inserted": 4757,
      "substantial": 4758,
      "ara": 4759,
      "loves": 4760,
      "poly": 4761,
      "comb": 4762,
      "absur": 4763,
      "buttho": 4764,
      "replied": 4765,
      "eh": 4766,
      "ez": 4767,
      "rewritten": 4768,
      "caught": 4769,
      "bbbb": 4770,
      "staff": 4771,
      "constant": 4772,
      "tie": 4773,
      "trick": 4774,
      "manu": 4775,
      "mich": 4776,
      "chose": 4777,
      "trial": 4778,
      "minister": 4779,
      "zion": 4780,
      "resist": 4781,
      "door": 4782,
      "finish": 4783,
      "feelings": 4784,
      "papers": 4785,
      "lyn": 4786,
      "pedophi": 4787,
      "materials": 4788,
      "newsletter": 4789,
      "hammad": 4790,
      "massac": 4791,
      "writers": 4792,
      "nit": 4793,
      "pm": 4794,
      "sensi": 4795,
      "whore": 4796,
      "flat": 4797,
      "lands": 4798,
      "attempted": 4799,
      "anger": 4800,
      "tonight": 4801,
      "rice": 4802,
      "twe": 4803,
      "abusive": 4804,
      "wealth": 4805,
      "allah": 4806,
      "elled": 4807,
      "electron": 4808,
      "assistance": 4809,
      "statistics": 4810,
      "vague": 4811,
      "grounds": 4812,
      "zel": 4813,
      "lef": 4814,
      "prod": 4815,
      "temper": 4816,
      "ather": 4817,
      "esome": 4818,
      "setting": 4819,
      "exception": 4820,
      "cook": 4821,
      "candidate": 4822,
      "covers": 4823,
      "grace": 4824,
      "explains": 4825,
      "financial": 4826,
      "entitled": 4827,
      "pac": 4828,
      "udo": 4829,
      "ona": 4830,
      "anarch": 4831,
      "percent": 4832,
      "blaa": 4833,
      "responsi": 4834,
      "property": 4835,
      "scope": 4836,
      "mathema": 4837,
      "afghan": 4838,
      "bass": 4839,
      "porn": 4840,
      "closely": 4841,
      "sudden": 4842,
      "lg": 4843,
      "ung": 4844,
      "url": 4845,
      "ette": 4846,
      "believed": 4847,
      "herit": 4848,
      "intelligent": 4849,
      "proto": 4850,
      "iled": 4851,
      "marily": 4852,
      "blah": 4853,
      "tony": 4854,
      "fundamental": 4855,
      "suicide": 4856,
      "absurd": 4857,
      "biz": 4858,
      "terrible": 4859,
      "punish": 4860,
      "spect": 4861,
      "sop": 4862,
      "yall": 4863,
      "sales": 4864,
      "mont": 4865,
      "directed": 4866,
      "clarification": 4867,
      "korean": 4868,
      "bh": 4869,
      "rants": 4870,
      "sie": 4871,
      "coordin": 4872,
      "merit": 4873,
      "climate": 4874,
      "bringing": 4875,
      "assessment": 4876,
      "egg": 4877,
      "consul": 4878,
      "comfort": 4879,
      "feels": 4880,
      "publications": 4881,
      "failure": 4882,
      "doesnt": 4883,
      "acknowled": 4884,
      "camer": 4885,
      "dim": 4886,
      "sister": 4887,
      "until": 4888,
      "items": 4889,
      "mud": 4890,
      "coupled": 4891,
      "mature": 4892,
      "videos": 4893,
      "greece": 4894,
      "sincerely": 4895,
      "nov": 4896,
      "upset": 4897,
      "launch": 4898,
      "describing": 4899,
      "chapter": 4900,
      "mum": 4901,
      "zil": 4902,
      "stuck": 4903,
      "qui": 4904,
      "toward": 4905,
      "dumbass": 4906,
      "exclusive": 4907,
      "mixed": 4908,
      "buttholes": 4909,
      "unacceptable": 4910,
      "privile": 4911,
      "realized": 4912,
      "refs": 4913,
      "nationality": 4914,
      "arabic": 4915,
      "oxy": 4916,
      "ality": 4917,
      "poorly": 4918,
      "christmas": 4919,
      "rab": 4920,
      "unlikely": 4921,
      "expression": 4922,
      "anyways": 4923,
      "pair": 4924,
      "kindly": 4925,
      "imply": 4926,
      "continuing": 4927,
      "gasm": 4928,
      "infor": 4929,
      "tha": 4930,
      "ingly": 4931,
      "defe": 4932,
      "features": 4933,
      "oldid": 4934,
      "azer": 4935,
      "marked": 4936,
      "tiny": 4937,
      "bonergasm": 4938,
      "fuk": 4939,
      "secks": 4940,
      "raj": 4941,
      "bigger": 4942,
      "whenever": 4943,
      "moreover": 4944,
      "implies": 4945,
      "gross": 4946,
      "atest": 4947,
      "answers": 4948,
      "audi": 4949,
      "believes": 4950,
      "answered": 4951,
      "hindus": 4952,
      "criticisms": 4953,
      "determined": 4954,
      "buttsecks": 4955,
      "chicago": 4956,
      "rubbish": 4957,
      "cd": 4958,
      "decent": 4959,
      "summer": 4960,
      "lacking": 4961,
      "valuable": 4962,
      "dance": 4963,
      "ugu": 4964,
      "ami": 4965,
      "hook": 4966,
      "trivia": 4967,
      "recorded": 4968,
      "kn": 4969,
      "itation": 4970,
      "acity": 4971,
      "offended": 4972,
      "justification": 4973,
      "hl": 4974,
      "discovered": 4975,
      "guilty": 4976,
      "fee": 4977,
      "represented": 4978,
      "teams": 4979,
      "prise": 4980,
      "generation": 4981,
      "possibility": 4982,
      "director": 4983,
      "greatest": 4984,
      "fails": 4985,
      "orthod": 4986,
      "liked": 4987,
      "factor": 4988,
      "ggt": 4989,
      "jel": 4990,
      "ras": 4991,
      "vd": 4992,
      "cham": 4993,
      "chosen": 4994,
      "awesome": 4995,
      "bage": 4996,
      "anne": 4997,
      "ulated": 4998,
      "wear": 4999,
      "sher": 5000,
      "fies": 5001,
      "pping": 5002,
      "benefits": 5003,
      "mothjer": 5004,
      "imper": 5005,
      "risk": 5006,
      "bour": 5007,
      "gger": 5008,
      "kj": 5009,
      "prox": 5010,
      "fired": 5011,
      "vandalized": 5012,
      "consideration": 5013,
      "watchlist": 5014,
      "assumed": 5015,
      "bai": 5016,
      "locked": 5017,
      "distinction": 5018,
      "snow": 5019,
      "critics": 5020,
      "recei": 5021,
      "muse": 5022,
      "nan": 5023,
      "causes": 5024,
      "ogy": 5025,
      "administration": 5026,
      "convention": 5027,
      "credibility": 5028,
      "texas": 5029,
      "udes": 5030,
      "starts": 5031,
      "speculation": 5032,
      "fixing": 5033,
      "teacher": 5034,
      "scholarly": 5035,
      "beautiful": 5036,
      "uro": 5037,
      "ert": 5038,
      "adds": 5039,
      "cos": 5040,
      "logist": 5041,
      "horrible": 5042,
      "motherfucker": 5043,
      "elliot": 5044,
      "reputation": 5045,
      "bun": 5046,
      "receive": 5047,
      "filled": 5048,
      "texts": 5049,
      "gradu": 5050,
      "trivial": 5051,
      "cti": 5052,
      "vac": 5053,
      "ala": 5054,
      "constitutes": 5055,
      "minute": 5056,
      "lessly": 5057,
      "wave": 5058,
      "conventions": 5059,
      "kkkkkkkk": 5060,
      "serbian": 5061,
      "execu": 5062,
      "prominent": 5063,
      "fggt": 5064,
      "ux": 5065,
      "unreliable": 5066,
      "obli": 5067,
      "brad": 5068,
      "satisfy": 5069,
      "alive": 5070,
      "convic": 5071,
      "ulate": 5072,
      "assa": 5073,
      "equivalent": 5074,
      "expansion": 5075,
      "ec": 5076,
      "advise": 5077,
      "aircraft": 5078,
      "emplo": 5079,
      "disruption": 5080,
      "compet": 5081,
      "billion": 5082,
      "scale": 5083,
      "dab": 5084,
      "gif": 5085,
      "ponents": 5086,
      "encyclopaed": 5087,
      "describes": 5088,
      "chief": 5089,
      "jr": 5090,
      "ita": 5091,
      "destru": 5092,
      "vehic": 5093,
      "noobs": 5094,
      "holding": 5095,
      "willy": 5096,
      "compreh": 5097,
      "daniel": 5098,
      "tree": 5099,
      "omen": 5100,
      "desire": 5101,
      "embar": 5102,
      "patri": 5103,
      "jerk": 5104,
      "offered": 5105,
      "pseudo": 5106,
      "lio": 5107,
      "bled": 5108,
      "cuz": 5109,
      "memory": 5110,
      "chem": 5111,
      "highest": 5112,
      "introduced": 5113,
      "zzzzzzzzzzzzzzzzzzzzzzzzzzzzzzzz": 5114,
      "abusing": 5115,
      "feb": 5116,
      "pressing": 5117,
      "secondly": 5118,
      "blanking": 5119,
      "font": 5120,
      "ata": 5121,
      "ura": 5122,
      "cau": 5123,
      "lake": 5124,
      "bib": 5125,
      "historian": 5126,
      "scott": 5127,
      "training": 5128,
      "opened": 5129,
      "din": 5130,
      "reci": 5131,
      "figh": 5132,
      "ached": 5133,
      "directory": 5134,
      "ume": 5135,
      "tips": 5136,
      "coo": 5137,
      "invited": 5138,
      "reputable": 5139,
      "congratulations": 5140,
      "wattwatt": 5141,
      "inspir": 5142,
      "neo": 5143,
      "apple": 5144,
      "talks": 5145,
      "vandalizer": 5146,
      "reviewing": 5147,
      "leaders": 5148,
      "elements": 5149,
      "fasc": 5150,
      "affili": 5151,
      "oom": 5152,
      "isnt": 5153,
      "lian": 5154,
      "coast": 5155,
      "writes": 5156,
      "plane": 5157,
      "garbage": 5158,
      "wikis": 5159,
      "technically": 5160,
      "aaaaaaaaaaaaaaaaaaaaaaaaaaaaaaaa": 5161,
      "whites": 5162,
      "regarded": 5163,
      "albums": 5164,
      "democracy": 5165,
      "urban": 5166,
      "hire": 5167,
      "pointless": 5168,
      "greatly": 5169,
      "broke": 5170,
      "armenian": 5171,
      "andy": 5172,
      "warri": 5173,
      "visible": 5174,
      "transfer": 5175,
      "fyi": 5176,
      "spoken": 5177,
      "were": 5178,
      "perate": 5179,
      "defending": 5180,
      "artists": 5181,
      "entertain": 5182,
      "refuse": 5183,
      "donald": 5184,
      "zeal": 5185,
      "godstars": 5186,
      "bury": 5187,
      "supporters": 5188,
      "acknowledge": 5189,
      "dal": 5190,
      "kins": 5191,
      "omg": 5192,
      "sikh": 5193,
      "commented": 5194,
      "organisation": 5195,
      "promoting": 5196,
      "nate": 5197,
      "kim": 5198,
      "primarily": 5199,
      "suspic": 5200,
      "stock": 5201,
      "connected": 5202,
      "orphan": 5203,
      "dum": 5204,
      "yel": 5205,
      "lif": 5206,
      "rise": 5207,
      "poland": 5208,
      "guid": 5209,
      "muhammad": 5210,
      "frame": 5211,
      "closer": 5212,
      "cancer": 5213,
      "flor": 5214,
      "addresses": 5215,
      "arts": 5216,
      "certi": 5217,
      "phy": 5218,
      "gather": 5219,
      "violates": 5220,
      "medicine": 5221,
      "partial": 5222,
      "shooting": 5223,
      "methods": 5224,
      "disease": 5225,
      "fell": 5226,
      "tia": 5227,
      "elds": 5228,
      "experts": 5229,
      "engaged": 5230,
      "socialist": 5231,
      "wolf": 5232,
      "granted": 5233,
      "gut": 5234,
      "jj": 5235,
      "mt": 5236,
      "sab": 5237,
      "bling": 5238,
      "quoting": 5239,
      "indicates": 5240,
      "respected": 5241,
      "strike": 5242,
      "macedonia": 5243,
      "aur": 5244,
      "nowhere": 5245,
      "metro": 5246,
      "notices": 5247,
      "leads": 5248,
      "bastered": 5249,
      "comedy": 5250,
      "rections": 5251,
      "iler": 5252,
      "reedelliot": 5253,
      "square": 5254,
      "labour": 5255,
      "distingu": 5256,
      "regional": 5257,
      "extent": 5258,
      "fia": 5259,
      "gus": 5260,
      "nat": 5261,
      "heil": 5262,
      "mates": 5263,
      "francis": 5264,
      "oy": 5265,
      "sets": 5266,
      "mode": 5267,
      "premi": 5268,
      "undant": 5269,
      "bothered": 5270,
      "decline": 5271,
      "mountain": 5272,
      "deliberately": 5273,
      "gary": 5274,
      "vas": 5275,
      "heavi": 5276,
      "cites": 5277,
      "restor": 5278,
      "humans": 5279,
      "affair": 5280,
      "cree": 5281,
      "gray": 5282,
      "doing": 5283,
      "fare": 5284,
      "korea": 5285,
      "conditions": 5286,
      "victor": 5287,
      "palestinian": 5288,
      "exer": 5289,
      "dynam": 5290,
      "survey": 5291,
      "classic": 5292,
      "jackson": 5293,
      "mexicans": 5294,
      "newcomers": 5295,
      "orange": 5296,
      "powerful": 5297,
      "fab": 5298,
      "pir": 5299,
      "accompl": 5300,
      "ches": 5301,
      "iden": 5302,
      "aked": 5303,
      "hearing": 5304,
      "libel": 5305,
      "ads": 5306,
      "plagi": 5307,
      "relatively": 5308,
      "museum": 5309,
      "inton": 5310,
      "harry": 5311,
      "testing": 5312,
      "stances": 5313,
      "humor": 5314,
      "bure": 5315,
      "kers": 5316,
      "arian": 5317,
      "tai": 5318,
      "served": 5319,
      "informative": 5320,
      "plagiar": 5321,
      "arse": 5322,
      "irc": 5323,
      "ressing": 5324,
      "firm": 5325,
      "koso": 5326,
      "publisher": 5327,
      "threatening": 5328,
      "ov": 5329,
      "rie": 5330,
      "dish": 5331,
      "archived": 5332,
      "gays": 5333,
      "additionally": 5334,
      "construction": 5335,
      "educated": 5336,
      "committed": 5337,
      "newspapers": 5338,
      "windows": 5339,
      "shad": 5340,
      "denial": 5341,
      "wont": 5342,
      "appointed": 5343,
      "moves": 5344,
      "lican": 5345,
      "archite": 5346,
      "definitions": 5347,
      "kinda": 5348,
      "occupation": 5349,
      "csd": 5350,
      "incidents": 5351,
      "esh": 5352,
      "fart": 5353,
      "ethnicity": 5354,
      "boobs": 5355,
      "settle": 5356,
      "iiiiiiii": 5357,
      "sant": 5358,
      "alph": 5359,
      "discrimin": 5360,
      "coin": 5361,
      "relevance": 5362,
      "allowing": 5363,
      "greeting": 5364,
      "hidden": 5365,
      "infl": 5366,
      "hosti": 5367,
      "izes": 5368,
      "referencing": 5369,
      "pressure": 5370,
      "branch": 5371,
      "temple": 5372,
      "fictional": 5373,
      "casual": 5374,
      "owned": 5375,
      "storm": 5376,
      "unfair": 5377,
      "hosp": 5378,
      "elling": 5379,
      "ounder": 5380,
      "monitor": 5381,
      "smaller": 5382,
      "techni": 5383,
      "administrative": 5384,
      "tire": 5385,
      "stren": 5386,
      "ola": 5387,
      "actors": 5388,
      "poster": 5389,
      "origins": 5390,
      "drag": 5391,
      "serbia": 5392,
      "grey": 5393,
      "advertise": 5394,
      "architect": 5395,
      "alot": 5396,
      "unconstructive": 5397,
      "georg": 5398,
      "perce": 5399,
      "viewpoint": 5400,
      "warn": 5401,
      "problematic": 5402,
      "capable": 5403,
      "documentation": 5404,
      "dutch": 5405,
      "gation": 5406,
      "rein": 5407,
      "concep": 5408,
      "respective": 5409,
      "simpli": 5410,
      "representation": 5411,
      "matches": 5412,
      "hb": 5413,
      "utions": 5414,
      "stress": 5415,
      "ador": 5416,
      "loved": 5417,
      "conform": 5418,
      "questionable": 5419,
      "hyper": 5420,
      "homophob": 5421,
      "steps": 5422,
      "download": 5423,
      "submitted": 5424,
      "advant": 5425,
      "habit": 5426,
      "devil": 5427,
      "column": 5428,
      "inline": 5429,
      "essay": 5430,
      "marx": 5431,
      "intellectual": 5432,
      "pump": 5433,
      "orient": 5434,
      "amend": 5435,
      "haw": 5436,
      "reasonably": 5437,
      "niggerjew": 5438,
      "violated": 5439,
      "application": 5440,
      "esp": 5441,
      "istics": 5442,
      "rod": 5443,
      "concent": 5444,
      "pod": 5445,
      "proved": 5446,
      "guitar": 5447,
      "puts": 5448,
      "papa": 5449,
      "increase": 5450,
      "pit": 5451,
      "convin": 5452,
      "holi": 5453,
      "bosn": 5454,
      "bious": 5455,
      "everywhere": 5456,
      "rush": 5457,
      "nuclear": 5458,
      "tweet": 5459,
      "yellow": 5460,
      "cision": 5461,
      "gard": 5462,
      "lap": 5463,
      "satur": 5464,
      "rose": 5465,
      "wanting": 5466,
      "brothers": 5467,
      "orthodox": 5468,
      "astro": 5469,
      "preser": 5470,
      "mainpage": 5471,
      "preferred": 5472,
      "condition": 5473,
      "joseph": 5474,
      "socalled": 5475,
      "cade": 5476,
      "spi": 5477,
      "joined": 5478,
      "traitor": 5479,
      "rollback": 5480,
      "requirements": 5481,
      "philippineslong": 5482,
      "ost": 5483,
      "zing": 5484,
      "poe": 5485,
      "commission": 5486,
      "partis": 5487,
      "price": 5488,
      "mony": 5489,
      "pieces": 5490,
      "communication": 5491,
      "bless": 5492,
      "iq": 5493,
      "oul": 5494,
      "mod": 5495,
      "internal": 5496,
      "lah": 5497,
      "blacks": 5498,
      "brew": 5499,
      "burg": 5500,
      "arabs": 5501,
      "conclusions": 5502,
      "satan": 5503,
      "piss": 5504,
      "stable": 5505,
      "omy": 5506,
      "highlight": 5507,
      "ukrain": 5508,
      "abortion": 5509,
      "twee": 5510,
      "neil": 5511,
      "abo": 5512,
      "quer": 5513,
      "shan": 5514,
      "pattern": 5515,
      "insults": 5516,
      "itarian": 5517,
      "controlled": 5518,
      "rome": 5519,
      "proves": 5520,
      "disco": 5521,
      "blow": 5522,
      "reviewer": 5523,
      "employe": 5524,
      "lmao": 5525,
      "below": 5526,
      "excep": 5527,
      "disney": 5528,
      "redundant": 5529,
      "specifies": 5530,
      "sockpuppets": 5531,
      "scratch": 5532,
      "dangerous": 5533,
      "management": 5534,
      "phenomen": 5535,
      "tle": 5536,
      "rev": 5537,
      "alright": 5538,
      "pope": 5539,
      "taught": 5540,
      "badly": 5541,
      "occurred": 5542,
      "destroyed": 5543,
      "bureau": 5544,
      "regi": 5545,
      "hatred": 5546,
      "sse": 5547,
      "ched": 5548,
      "ils": 5549,
      "fuckers": 5550,
      "juda": 5551,
      "winning": 5552,
      "principles": 5553,
      "presence": 5554,
      "enemy": 5555,
      "wasting": 5556,
      "economy": 5557,
      "dialect": 5558,
      "spacing": 5559,
      "cket": 5560,
      "gle": 5561,
      "scou": 5562,
      "defam": 5563,
      "eline": 5564,
      "moham": 5565,
      "spring": 5566,
      "creative": 5567,
      "bits": 5568,
      "dod": 5569,
      "fresh": 5570,
      "oly": 5571,
      "zi": 5572,
      "infer": 5573,
      "abs": 5574,
      "therap": 5575,
      "horny": 5576,
      "rejected": 5577,
      "lis": 5578,
      "una": 5579,
      "expressed": 5580,
      "charges": 5581,
      "wake": 5582,
      "passage": 5583,
      "recognition": 5584,
      "facil": 5585,
      "blogs": 5586,
      "swi": 5587,
      "province": 5588,
      "deletions": 5589,
      "nationalist": 5590,
      "iii": 5591,
      "ilities": 5592,
      "levels": 5593,
      "minimum": 5594,
      "tank": 5595,
      "pole": 5596,
      "passing": 5597,
      "ownership": 5598,
      "quotation": 5599,
      "judgement": 5600,
      "circumstances": 5601,
      "declared": 5602,
      "heavily": 5603,
      "tok": 5604,
      "whil": 5605,
      "parliam": 5606,
      "dubious": 5607,
      "followers": 5608,
      "worldwide": 5609,
      "complic": 5610,
      "greeks": 5611,
      "typing": 5612,
      "ulty": 5613,
      "whel": 5614,
      "gian": 5615,
      "angle": 5616,
      "harassing": 5617,
      "fuckfuckfuckfuckfuckfuckfuckfuck": 5618,
      "invented": 5619,
      "chair": 5620,
      "suff": 5621,
      "comic": 5622,
      "sover": 5623,
      "hips": 5624,
      "coward": 5625,
      "institute": 5626,
      "alalalalalalalal": 5627,
      "dedicated": 5628,
      "matt": 5629,
      "stink": 5630,
      "lil": 5631,
      "combin": 5632,
      "apped": 5633,
      "behalf": 5634,
      "closing": 5635,
      "calm": 5636,
      "officer": 5637,
      "germans": 5638,
      "whilst": 5639,
      "vian": 5640,
      "managed": 5641,
      "aster": 5642,
      "sau": 5643,
      "audio": 5644,
      "classical": 5645,
      "picked": 5646,
      "cnn": 5647,
      "mb": 5648,
      "theore": 5649,
      "spain": 5650,
      "planning": 5651,
      "values": 5652,
      "supreme": 5653,
      "duck": 5654,
      "iner": 5655,
      "eds": 5656,
      "acom": 5657,
      "prohibit": 5658,
      "talked": 5659,
      "wearing": 5660,
      "shu": 5661,
      "timately": 5662,
      "string": 5663,
      "calcul": 5664,
      "fying": 5665,
      "fourth": 5666,
      "translated": 5667,
      "soldiers": 5668,
      "procedure": 5669,
      "infin": 5670,
      "lore": 5671,
      "clinton": 5672,
      "dot": 5673,
      "minded": 5674,
      "childish": 5675,
      "favorite": 5676,
      "genetic": 5677,
      "heritage": 5678,
      "convinced": 5679,
      "alan": 5680,
      "pool": 5681,
      "gee": 5682,
      "responses": 5683,
      "speakers": 5684,
      "raped": 5685,
      "bian": 5686,
      "agan": 5687,
      "tric": 5688,
      "monkey": 5689,
      "agram": 5690,
      "nominate": 5691,
      "contrast": 5692,
      "dj": 5693,
      "iny": 5694,
      "shir": 5695,
      "prus": 5696,
      "server": 5697,
      "lazy": 5698,
      "steal": 5699,
      "logists": 5700,
      "turks": 5701,
      "variety": 5702,
      "macedonian": 5703,
      "contradict": 5704,
      "regime": 5705,
      "fbi": 5706,
      "hay": 5707,
      "thur": 5708,
      "presu": 5709,
      "qualified": 5710,
      "notification": 5711,
      "croatian": 5712,
      "vul": 5713,
      "cape": 5714,
      "paraph": 5715,
      "accurately": 5716,
      "represents": 5717,
      "cleaning": 5718,
      "fascist": 5719,
      "nur": 5720,
      "tren": 5721,
      "subjective": 5722,
      "bug": 5723,
      "mexico": 5724,
      "purely": 5725,
      "louis": 5726,
      "founder": 5727,
      "ilies": 5728,
      "eric": 5729,
      "tise": 5730,
      "credited": 5731,
      "realise": 5732,
      "lang": 5733,
      "redirected": 5734,
      "invite": 5735,
      "academ": 5736,
      "sweet": 5737,
      "dictators": 5738,
      "advan": 5739,
      "tall": 5740,
      "discre": 5741,
      "paris": 5742,
      "decisions": 5743,
      "kir": 5744,
      "marke": 5745,
      "seconds": 5746,
      "shoot": 5747,
      "spamming": 5748,
      "falls": 5749,
      "anthony": 5750,
      "kings": 5751,
      "volume": 5752,
      "tures": 5753,
      "analy": 5754,
      "similarly": 5755,
      "islands": 5756,
      "rates": 5757,
      "sis": 5758,
      "approved": 5759,
      "introduce": 5760,
      "narrow": 5761,
      "uel": 5762,
      "aga": 5763,
      "contemporary": 5764,
      "folk": 5765,
      "athy": 5766,
      "cocks": 5767,
      "contained": 5768,
      "increasing": 5769,
      "vietnam": 5770,
      "kash": 5771,
      "tco": 5772,
      "apr": 5773,
      "portray": 5774,
      "corn": 5775,
      "ideology": 5776,
      "caption": 5777,
      "autom": 5778,
      "worthless": 5779,
      "ordinary": 5780,
      "precisely": 5781,
      "oompapa": 5782,
      "parliament": 5783,
      "encies": 5784,
      "iling": 5785,
      "fucks": 5786,
      "presum": 5787,
      "musical": 5788,
      "ponent": 5789,
      "orders": 5790,
      "replaceable": 5791,
      "palestine": 5792,
      "afghanistan": 5793,
      "youn": 5794,
      "endor": 5795,
      "prejud": 5796,
      "crash": 5797,
      "farm": 5798,
      "slavery": 5799,
      "sending": 5800,
      "unci": 5801,
      "ults": 5802,
      "italy": 5803,
      "footnote": 5804,
      "consistency": 5805,
      "andrew": 5806,
      "dur": 5807,
      "dete": 5808,
      "performance": 5809,
      "surround": 5810,
      "elections": 5811,
      "anthro": 5812,
      "greetings": 5813,
      "bak": 5814,
      "aggressive": 5815,
      "ading": 5816,
      "renamed": 5817,
      "copyrights": 5818,
      "translate": 5819,
      "focused": 5820,
      "resource": 5821,
      "threerever": 5822,
      "cars": 5823,
      "pink": 5824,
      "lywood": 5825,
      "columb": 5826,
      "improvements": 5827,
      "speaks": 5828,
      "independence": 5829,
      "violent": 5830,
      "forums": 5831,
      "substantially": 5832,
      "assumption": 5833,
      "lgbt": 5834,
      "nie": 5835,
      "stance": 5836,
      "deliver": 5837,
      "quest": 5838,
      "legally": 5839,
      "overwhel": 5840,
      "protecting": 5841,
      "explanations": 5842,
      "ships": 5843,
      "growing": 5844,
      "register": 5845,
      "responsibility": 5846,
      "sland": 5847,
      "tea": 5848,
      "cla": 5849,
      "hebrew": 5850,
      "legend": 5851,
      "overview": 5852,
      "solve": 5853,
      "doub": 5854,
      "douche": 5855,
      "tables": 5856,
      "massacre": 5857,
      "fg": 5858,
      "seeking": 5859,
      "discour": 5860,
      "females": 5861,
      "romney": 5862,
      "ambiguous": 5863,
      "jelaton": 5864,
      "eid": 5865,
      "unrelated": 5866,
      "families": 5867,
      "kinds": 5868,
      "pending": 5869,
      "cunts": 5870,
      "publishing": 5871,
      "challenged": 5872,
      "democrats": 5873,
      "attribution": 5874,
      "mainpagebg": 5875,
      "invest": 5876,
      "doc": 5877,
      "soul": 5878,
      "superior": 5879,
      "drawn": 5880,
      "printed": 5881,
      "emphasis": 5882,
      "judaism": 5883,
      "wy": 5884,
      "thin": 5885,
      "chain": 5886,
      "legis": 5887,
      "cyber": 5888,
      "bums": 5889,
      "jobs": 5890,
      "pretend": 5891,
      "contested": 5892,
      "henry": 5893,
      "declined": 5894,
      "environment": 5895,
      "vagina": 5896,
      "tough": 5897,
      "armed": 5898,
      "thal": 5899,
      "sted": 5900,
      "chuck": 5901,
      "adult": 5902,
      "crus": 5903,
      "myster": 5904,
      "relating": 5905,
      "sitting": 5906,
      "watched": 5907,
      "store": 5908,
      "manufact": 5909,
      "inher": 5910,
      "rely": 5911,
      "backed": 5912,
      "whats": 5913,
      "politically": 5914,
      "tured": 5915,
      "awful": 5916,
      "figured": 5917,
      "potentially": 5918,
      "straw": 5919,
      "wanker": 5920,
      "paraphr": 5921,
      "mitt": 5922,
      "reform": 5923,
      "approx": 5924,
      "runs": 5925,
      "arrogant": 5926,
      "stain": 5927,
      "bee": 5928,
      "extr": 5929,
      "boi": 5930,
      "shif": 5931,
      "miles": 5932,
      "apping": 5933,
      "centu": 5934,
      "picking": 5935,
      "threerevert": 5936,
      "vg": 5937,
      "disci": 5938,
      "warming": 5939,
      "scum": 5940,
      "angel": 5941,
      "authorities": 5942,
      "puppetry": 5943,
      "holds": 5944,
      "selected": 5945,
      "prepared": 5946,
      "fought": 5947,
      "hous": 5948,
      "obsc": 5949,
      "viewed": 5950,
      "offense": 5951,
      "refused": 5952,
      "cats": 5953,
      "scientist": 5954,
      "remaining": 5955,
      "cellspacing": 5956,
      "programs": 5957,
      "feminazi": 5958,
      "nc": 5959,
      "ening": 5960,
      "rip": 5961,
      "convince": 5962,
      "soap": 5963,
      "merger": 5964,
      "profit": 5965,
      "sensitive": 5966,
      "mohammed": 5967,
      "exchange": 5968,
      "searching": 5969,
      "barbar": 5970,
      "filed": 5971,
      "stephen": 5972,
      "trolls": 5973,
      "ssssssss": 5974,
      "nine": 5975,
      "rout": 5976,
      "rebel": 5977,
      "youth": 5978,
      "forgive": 5979,
      "argued": 5980,
      "dave": 5981,
      "sons": 5982,
      "organized": 5983,
      "distance": 5984,
      "representative": 5985,
      "typically": 5986,
      "citizen": 5987,
      "dddddddd": 5988,
      "during": 5989,
      "reven": 5990,
      "copyvio": 5991,
      "filter": 5992,
      "stats": 5993,
      "guns": 5994,
      "golden": 5995,
      "presumably": 5996,
      "yard": 5997,
      "brian": 5998,
      "indicated": 5999,
      "accordingly": 6000,
      "weekend": 6001,
      "suspected": 6002,
      "selling": 6003,
      "announced": 6004,
      "wwe": 6005,
      "quette": 6006,
      "offfuck": 6007,
      "decades": 6008,
      "dealt": 6009,
      "implic": 6010,
      "universal": 6011,
      "untru": 6012,
      "lolololo": 6013,
      "selecting": 6014,
      "distinct": 6015,
      "adopted": 6016,
      "hates": 6017,
      "sport": 6018,
      "reck": 6019,
      "acces": 6020,
      "units": 6021,
      "cessive": 6022,
      "asses": 6023,
      "fields": 6024,
      "brac": 6025,
      "cute": 6026,
      "oxford": 6027,
      "rolling": 6028,
      "complaints": 6029,
      "solely": 6030,
      "interpreted": 6031,
      "gamer": 6032,
      "kans": 6033,
      "mason": 6034,
      "zation": 6035,
      "stere": 6036,
      "checkuser": 6037,
      "header": 6038,
      "slave": 6039,
      "dvd": 6040,
      "punch": 6041,
      "edge": 6042,
      "ggle": 6043,
      "heshe": 6044,
      "ffffff": 6045,
      "demonstrate": 6046,
      "pull": 6047,
      "nj": 6048,
      "pra": 6049,
      "thir": 6050,
      "aya": 6051,
      "causing": 6052,
      "otes": 6053,
      "polit": 6054,
      "journalist": 6055,
      "thousand": 6056,
      "facilitate": 6057,
      "dre": 6058,
      "lly": 6059,
      "qa": 6060,
      "sic": 6061,
      "ym": 6062,
      "inn": 6063,
      "agu": 6064,
      "caste": 6065,
      "session": 6066,
      "nikko": 6067,
      "kamado": 6068,
      "hs": 6069,
      "rere": 6070,
      "lean": 6071,
      "cric": 6072,
      "lawyer": 6073,
      "drogon": 6074,
      "attributed": 6075,
      "virtually": 6076,
      "cum": 6077,
      "raine": 6078,
      "feet": 6079,
      "dos": 6080,
      "tries": 6081,
      "mormon": 6082,
      "religions": 6083,
      "albanian": 6084,
      "route": 6085,
      "skep": 6086,
      "gd": 6087,
      "icious": 6088,
      "motor": 6089,
      "plate": 6090,
      "sometime": 6091,
      "commenting": 6092,
      "centre": 6093,
      "harrass": 6094,
      "models": 6095,
      "scheme": 6096,
      "kosovo": 6097,
      "hp": 6098,
      "genes": 6099,
      "syria": 6100,
      "analanal": 6101,
      "terminology": 6102,
      "drugs": 6103,
      "scotland": 6104,
      "receiving": 6105,
      "pian": 6106,
      "scan": 6107,
      "alum": 6108,
      "beck": 6109,
      "mock": 6110,
      "lical": 6111,
      "sens": 6112,
      "fags": 6113,
      "datab": 6114,
      "rarely": 6115,
      "bust": 6116,
      "iently": 6117,
      "tip": 6118,
      "enus": 6119,
      "isbn": 6120,
      "wii": 6121,
      "gos": 6122,
      "perse": 6123,
      "guest": 6124,
      "vandalising": 6125,
      "dding": 6126,
      "threatened": 6127,
      "invalid": 6128,
      "agf": 6129,
      "conference": 6130,
      "singer": 6131,
      "signs": 6132,
      "denied": 6133,
      "amazon": 6134,
      "gggggggg": 6135,
      "intentions": 6136,
      "centuries": 6137,
      "rm": 6138,
      "notion": 6139,
      "involving": 6140,
      "egypt": 6141,
      "subsequent": 6142,
      "buck": 6143,
      "rhe": 6144,
      "rics": 6145,
      "yan": 6146,
      "aran": 6147,
      "ache": 6148,
      "kevin": 6149,
      "heaven": 6150,
      "nah": 6151,
      "issued": 6152,
      "situ": 6153,
      "adequ": 6154,
      "minorities": 6155,
      "buddy": 6156,
      "rrrr": 6157,
      "dress": 6158,
      "flying": 6159,
      "inf": 6160,
      "ensing": 6161,
      "omit": 6162,
      "teh": 6163,
      "correction": 6164,
      "diffs": 6165,
      "inserting": 6166,
      "supposedly": 6167,
      "baseball": 6168,
      "regularly": 6169,
      "prophet": 6170,
      "imperial": 6171,
      "lit": 6172,
      "ml": 6173,
      "ldo": 6174,
      "wease": 6175,
      "uphor": 6176,
      "mond": 6177,
      "misunderstanding": 6178,
      "cycle": 6179,
      "distinguish": 6180,
      "shadow": 6181,
      "georgia": 6182,
      "indefinitely": 6183,
      "pelican": 6184,
      "comics": 6185,
      "mono": 6186,
      "nationalism": 6187,
      "spelled": 6188,
      "reduce": 6189,
      "depth": 6190,
      "quiet": 6191,
      "eating": 6192,
      "kal": 6193,
      "gling": 6194,
      "rowspan": 6195,
      "adminship": 6196,
      "digital": 6197,
      "uuuuuuuuuuuuuuuuuuuuuuuuuuuuuuuu": 6198,
      "nb": 6199,
      "reception": 6200,
      "returned": 6201,
      "options": 6202,
      "bots": 6203,
      "vocate": 6204,
      "ooo": 6205,
      "salt": 6206,
      "dropped": 6207,
      "objects": 6208,
      "modified": 6209,
      "wrestling": 6210,
      "pissed": 6211,
      "concepts": 6212,
      "outr": 6213,
      "agno": 6214,
      "upper": 6215,
      "sphere": 6216,
      "empty": 6217,
      "descend": 6218,
      "liberals": 6219,
      "promoted": 6220,
      "limits": 6221,
      "extended": 6222,
      "comfortable": 6223,
      "arc": 6224,
      "acqu": 6225,
      "conformance": 6226,
      "heat": 6227,
      "serving": 6228,
      "screens": 6229,
      "integrity": 6230,
      "fantasy": 6231,
      "suddenly": 6232,
      "audience": 6233,
      "obscure": 6234,
      "dna": 6235,
      "eno": 6236,
      "essed": 6237,
      "miley": 6238,
      "crisis": 6239,
      "monarch": 6240,
      "everyday": 6241,
      "homeland": 6242,
      "slaves": 6243,
      "silver": 6244,
      "egyp": 6245,
      "rey": 6246,
      "oral": 6247,
      "senior": 6248,
      "personality": 6249,
      "severe": 6250,
      "judgment": 6251,
      "against": 6252,
      "broadcast": 6253,
      "initially": 6254,
      "nnnnnnnnnnnnnnnnnnnnnnnnnnnnnnnn": 6255,
      "acknowledged": 6256,
      "florida": 6257,
      "lind": 6258,
      "cow": 6259,
      "coach": 6260,
      "assy": 6261,
      "banning": 6262,
      "completed": 6263,
      "predic": 6264,
      "gers": 6265,
      "hd": 6266,
      "pics": 6267,
      "chop": 6268,
      "astic": 6269,
      "raw": 6270,
      "accordance": 6271,
      "johnson": 6272,
      "observ": 6273,
      "settled": 6274,
      "weapons": 6275,
      "hospital": 6276,
      "fj": 6277,
      "iro": 6278,
      "rename": 6279,
      "elabor": 6280,
      "compati": 6281,
      "assass": 6282,
      "cred": 6283,
      "capacity": 6284,
      "permitted": 6285,
      "oce": 6286,
      "png": 6287,
      "leban": 6288,
      "thru": 6289,
      "adjust": 6290,
      "forbid": 6291,
      "descent": 6292,
      "surface": 6293,
      "scen": 6294,
      "recognise": 6295,
      "teaching": 6296,
      "bitchesfuck": 6297,
      "comprehensive": 6298,
      "assem": 6299,
      "sig": 6300,
      "gosla": 6301,
      "soc": 6302,
      "bodies": 6303,
      "reversion": 6304,
      "logically": 6305,
      "rence": 6306,
      "invasion": 6307,
      "significantly": 6308,
      "teachers": 6309,
      "towns": 6310,
      "yyyyyyyyyyyyyyyyyyyyyyyyyyyyyyyy": 6311,
      "sovere": 6312,
      "endorse": 6313,
      "aj": 6314,
      "ened": 6315,
      "stret": 6316,
      "aded": 6317,
      "goth": 6318,
      "bile": 6319,
      "carol": 6320,
      "carried": 6321,
      "communism": 6322,
      "surprise": 6323,
      "minds": 6324,
      "deneid": 6325,
      "alem": 6326,
      "sheet": 6327,
      "puppets": 6328,
      "testi": 6329,
      "antisemitic": 6330,
      "marketing": 6331,
      "stereo": 6332,
      "paged": 6333,
      "consu": 6334,
      "contentious": 6335,
      "factually": 6336,
      "colors": 6337,
      "zeuphor": 6338,
      "cyrus": 6339,
      "socks": 6340,
      "wonderful": 6341,
      "insane": 6342,
      "magic": 6343,
      "opposing": 6344,
      "announce": 6345,
      "ukrainian": 6346,
      "zeuphoris": 6347,
      "noone": 6348,
      "weigh": 6349,
      "tales": 6350,
      "cooper": 6351,
      "natives": 6352,
      "hart": 6353,
      "elete": 6354,
      "disagreement": 6355,
      "feminist": 6356,
      "jab": 6357,
      "eration": 6358,
      "retired": 6359,
      "aly": 6360,
      "lith": 6361,
      "rol": 6362,
      "icial": 6363,
      "dozen": 6364,
      "interviews": 6365,
      "timeline": 6366,
      "alien": 6367,
      "sanction": 6368,
      "elected": 6369,
      "censored": 6370,
      "rat": 6371,
      "witch": 6372,
      "recreate": 6373,
      "loose": 6374,
      "workers": 6375,
      "biographical": 6376,
      "synthesis": 6377,
      "shape": 6378,
      "collaboration": 6379,
      "chemical": 6380,
      "icon": 6381,
      "rier": 6382,
      "notr": 6383,
      "excessive": 6384,
      "lla": 6385,
      "ody": 6386,
      "senti": 6387,
      "entity": 6388,
      "worded": 6389,
      "boring": 6390,
      "birthday": 6391,
      "effectively": 6392,
      "bird": 6393,
      "isy": 6394,
      "advis": 6395,
      "worship": 6396,
      "sorts": 6397,
      "approval": 6398,
      "speaker": 6399,
      "meaningful": 6400,
      "preference": 6401,
      "encyclopaedia": 6402,
      "approxim": 6403,
      "ole": 6404,
      "petty": 6405,
      "peenus": 6406,
      "addressing": 6407,
      "cof": 6408,
      "communities": 6409,
      "jerus": 6410,
      "dropdown": 6411,
      "practices": 6412,
      "supply": 6413,
      "olymp": 6414,
      "tali": 6415,
      "saved": 6416,
      "posing": 6417,
      "subsection": 6418,
      "logging": 6419,
      "shitty": 6420,
      "install": 6421,
      "jimmy": 6422,
      "engineering": 6423,
      "throwing": 6424,
      "hiding": 6425,
      "vehicle": 6426,
      "pd": 6427,
      "rd": 6428,
      "entic": 6429,
      "stab": 6430,
      "ride": 6431,
      "nose": 6432,
      "plans": 6433,
      "oked": 6434,
      "grate": 6435,
      "wellknown": 6436,
      "conflicts": 6437,
      "connect": 6438,
      "swedish": 6439,
      "jerusalem": 6440,
      "eight": 6441,
      "fits": 6442,
      "editwarring": 6443,
      "shell": 6444,
      "corrections": 6445,
      "fron": 6446,
      "distor": 6447,
      "spoke": 6448,
      "smile": 6449,
      "loud": 6450,
      "consci": 6451,
      "exposed": 6452,
      "intervention": 6453,
      "requirement": 6454,
      "depends": 6455,
      "tttttttt": 6456,
      "effic": 6457,
      "iam": 6458,
      "bos": 6459,
      "cain": 6460,
      "licensing": 6461,
      "portugu": 6462,
      "austri": 6463,
      "plays": 6464,
      "malicious": 6465,
      "panic": 6466,
      "occupied": 6467,
      "annoy": 6468,
      "finger": 6469,
      "warrior": 6470,
      "tz": 6471,
      "anna": 6472,
      "thr": 6473,
      "elle": 6474,
      "condem": 6475,
      "unbiased": 6476,
      "weather": 6477,
      "disrespect": 6478,
      "essential": 6479,
      "navi": 6480,
      "reliability": 6481,
      "banner": 6482,
      "participants": 6483,
      "electric": 6484,
      "swear": 6485,
      "secular": 6486,
      "antisemitism": 6487,
      "permanent": 6488,
      "gallery": 6489,
      "bm": 6490,
      "bby": 6491,
      "bunk": 6492,
      "flaw": 6493,
      "tery": 6494,
      "boss": 6495,
      "indication": 6496,
      "domes": 6497,
      "sadly": 6498,
      "pronunci": 6499,
      "bap": 6500,
      "ero": 6501,
      "advocate": 6502,
      "theme": 6503,
      "imdb": 6504,
      "boot": 6505,
      "serves": 6506,
      "correcting": 6507,
      "ukraine": 6508,
      "surprising": 6509,
      "ruled": 6510,
      "acies": 6511,
      "abled": 6512,
      "singh": 6513,
      "nevertheless": 6514,
      "patent": 6515,
      "strip": 6516,
      "flags": 6517,
      "sunday": 6518,
      "semiprotected": 6519,
      "updating": 6520,
      "feminism": 6521,
      "llllllll": 6522,
      "identical": 6523,
      "overwhelming": 6524,
      "gul": 6525,
      "dev": 6526,
      "deli": 6527,
      "cheat": 6528,
      "ideal": 6529,
      "signing": 6530,
      "ysouth": 6531,
      "instances": 6532,
      "atri": 6533,
      "lyrics": 6534,
      "tered": 6535,
      "divid": 6536,
      "aaa": 6537,
      "publicly": 6538,
      "handed": 6539,
      "amongst": 6540,
      "academy": 6541,
      "replacement": 6542,
      "sarcas": 6543,
      "encouraged": 6544,
      "oxymoron": 6545,
      "partisan": 6546,
      "cze": 6547,
      "evan": 6548,
      "retri": 6549,
      "outing": 6550,
      "advent": 6551,
      "roots": 6552,
      "heck": 6553,
      "criti": 6554,
      "meantime": 6555,
      "expertise": 6556,
      "lawdy": 6557,
      "covering": 6558,
      "nominations": 6559,
      "phrases": 6560,
      "joining": 6561,
      "deeply": 6562,
      "enforcement": 6563,
      "embarrass": 6564,
      "orphaned": 6565,
      "pagedelete": 6566,
      "lars": 6567,
      "twat": 6568,
      "kidding": 6569,
      "goals": 6570,
      "indians": 6571,
      "shak": 6572,
      "taste": 6573,
      "stubs": 6574,
      "etymo": 6575,
      "constitute": 6576,
      "dictatorship": 6577,
      "lli": 6578,
      "vu": 6579,
      "alt": 6580,
      "leaves": 6581,
      "idiotic": 6582,
      "solved": 6583,
      "meaningless": 6584,
      "quotations": 6585,
      "sarah": 6586,
      "demonstrated": 6587,
      "utterly": 6588,
      "barely": 6589,
      "platform": 6590,
      "clow": 6591,
      "inqu": 6592,
      "stamp": 6593,
      "urge": 6594,
      "dislike": 6595,
      "dipl": 6596,
      "corner": 6597,
      "banof": 6598,
      "planned": 6599,
      "succeed": 6600,
      "competition": 6601,
      "complicated": 6602,
      "notrhb": 6603,
      "agent": 6604,
      "combat": 6605,
      "perpe": 6606,
      "uding": 6607,
      "monster": 6608,
      "outcome": 6609,
      "merits": 6610,
      "darwin": 6611,
      "tactics": 6612,
      "politicians": 6613,
      "warranted": 6614,
      "guidance": 6615,
      "advantage": 6616,
      "ysouthbanof": 6617,
      "notrhbysouthbanof": 6618,
      "jur": 6619,
      "inal": 6620,
      "sees": 6621,
      "silence": 6622,
      "unreferenced": 6623,
      "saint": 6624,
      "prize": 6625,
      "practical": 6626,
      "screw": 6627,
      "physic": 6628,
      "regions": 6629,
      "depending": 6630,
      "azerbai": 6631,
      "destruction": 6632,
      "das": 6633,
      "kis": 6634,
      "scor": 6635,
      "beli": 6636,
      "irs": 6637,
      "cooperation": 6638,
      "attend": 6639,
      "carto": 6640,
      "contract": 6641,
      "intentionally": 6642,
      "yuyuyuyuyuyuyuyuyuyuyuyuyuyuyuyu": 6643,
      "bath": 6644,
      "bought": 6645,
      "jk": 6646,
      "lately": 6647,
      "nals": 6648,
      "oi": 6649,
      "tel": 6650,
      "inj": 6651,
      "neck": 6652,
      "clan": 6653,
      "cheap": 6654,
      "bulgarian": 6655,
      "classes": 6656,
      "assertions": 6657,
      "fsd": 6658,
      "knock": 6659,
      "persistent": 6660,
      "transi": 6661,
      "jum": 6662,
      "pha": 6663,
      "spar": 6664,
      "zes": 6665,
      "ultimately": 6666,
      "motion": 6667,
      "killer": 6668,
      "borrow": 6669,
      "alternate": 6670,
      "participation": 6671,
      "stalk": 6672,
      "sample": 6673,
      "murdered": 6674,
      "complaining": 6675,
      "doctr": 6676,
      "safety": 6677,
      "elementary": 6678,
      "ego": 6679,
      "bec": 6680,
      "forgotten": 6681,
      "remote": 6682,
      "liberty": 6683,
      "cuted": 6684,
      "enwikipediaorgwik": 6685,
      "driving": 6686,
      "educational": 6687,
      "cocksucking": 6688,
      "tytytytytytytytytytytytytytytyty": 6689,
      "assault": 6690,
      "strength": 6691,
      "gb": 6692,
      "outs": 6693,
      "conce": 6694,
      "parame": 6695,
      "finds": 6696,
      "synon": 6697,
      "singles": 6698,
      "harder": 6699,
      "differently": 6700,
      "yugosla": 6701,
      "lucky": 6702,
      "patience": 6703,
      "homophobic": 6704,
      "weasel": 6705,
      "ave": 6706,
      "cf": 6707,
      "ota": 6708,
      "depic": 6709,
      "hai": 6710,
      "duke": 6711,
      "authentic": 6712,
      "stalin": 6713,
      "amounts": 6714,
      "reduced": 6715,
      "victory": 6716,
      "portuguese": 6717,
      "evol": 6718,
      "versi": 6719,
      "neg": 6720,
      "hehe": 6721,
      "bash": 6722,
      "historically": 6723,
      "operating": 6724,
      "score": 6725,
      "journals": 6726,
      "applicable": 6727,
      "kit": 6728,
      "marine": 6729,
      "obtained": 6730,
      "presenting": 6731,
      "jordan": 6732,
      "malay": 6733,
      "releases": 6734,
      "proposing": 6735,
      "hypothesis": 6736,
      "alexander": 6737,
      "maxim": 6738,
      "alogue": 6739,
      "accomplish": 6740,
      "eti": 6741,
      "pound": 6742,
      "winter": 6743,
      "progressive": 6744,
      "instein": 6745,
      "stupidity": 6746,
      "varia": 6747,
      "radi": 6748,
      "communicate": 6749,
      "ruling": 6750,
      "strictly": 6751,
      "npa": 6752,
      "arious": 6753,
      "theat": 6754,
      "illy": 6755,
      "openly": 6756,
      "deaths": 6757,
      "buildings": 6758,
      "pom": 6759,
      "factors": 6760,
      "visual": 6761,
      "engaging": 6762,
      "flood": 6763,
      "performed": 6764,
      "fabric": 6765,
      "bis": 6766,
      "edward": 6767,
      "ros": 6768,
      "assure": 6769,
      "aband": 6770,
      "yousse": 6771,
      "shel": 6772,
      "derived": 6773,
      "counts": 6774,
      "regret": 6775,
      "trigger": 6776,
      "tons": 6777,
      "gramma": 6778,
      "descriptions": 6779,
      "circumcision": 6780,
      "coffee": 6781,
      "youssef": 6782,
      "nish": 6783,
      "chen": 6784,
      "adi": 6785,
      "gery": 6786,
      "attached": 6787,
      "pride": 6788,
      "charts": 6789,
      "scandal": 6790,
      "expanding": 6791,
      "patient": 6792,
      "combined": 6793,
      "restoring": 6794,
      "plagiarism": 6795,
      "cous": 6796,
      "fla": 6797,
      "yam": 6798,
      "tio": 6799,
      "default": 6800,
      "cease": 6801,
      "coher": 6802,
      "ups": 6803,
      "pregn": 6804,
      "gible": 6805,
      "specul": 6806,
      "flash": 6807,
      "crown": 6808,
      "grown": 6809,
      "ottom": 6810,
      "vity": 6811,
      "zab": 6812,
      "hoc": 6813,
      "whit": 6814,
      "spel": 6815,
      "copies": 6816,
      "relate": 6817,
      "homosexuality": 6818,
      "crapcrapcrapcrapcrapcrapcrapcrap": 6819,
      "domestic": 6820,
      "fame": 6821,
      "festi": 6822,
      "hated": 6823,
      "lame": 6824,
      "pdf": 6825,
      "ghob": 6826,
      "meanwhile": 6827,
      "bang": 6828,
      "trait": 6829,
      "churches": 6830,
      "rapid": 6831,
      "festival": 6832,
      "income": 6833,
      "stations": 6834,
      "seperate": 6835,
      "losing": 6836,
      "theres": 6837,
      "displayed": 6838,
      "eller": 6839,
      "fold": 6840,
      "harsh": 6841,
      "nich": 6842,
      "appearing": 6843,
      "libertar": 6844,
      "bsd": 6845,
      "romanian": 6846,
      "listening": 6847,
      "motivated": 6848,
      "pleasure": 6849,
      "camera": 6850,
      "grateful": 6851,
      "nac": 6852,
      "wang": 6853,
      "typo": 6854,
      "renaming": 6855,
      "davis": 6856,
      "fuel": 6857,
      "errone": 6858,
      "constitutional": 6859,
      "narrative": 6860,
      "naturally": 6861,
      "writings": 6862,
      "politician": 6863,
      "corrupt": 6864,
      "bout": 6865,
      "cj": 6866,
      "lone": 6867,
      "zu": 6868,
      "onian": 6869,
      "alco": 6870,
      "root": 6871,
      "been": 6872,
      "indo": 6873,
      "manager": 6874,
      "cott": 6875,
      "welsh": 6876,
      "valley": 6877,
      "representing": 6878,
      "apologise": 6879,
      "advertisement": 6880,
      "advanced": 6881,
      "database": 6882,
      "ghobrial": 6883,
      "dating": 6884,
      "each": 6885,
      "virus": 6886,
      "forcing": 6887,
      "clu": 6888,
      "cler": 6889,
      "diet": 6890,
      "aks": 6891,
      "copying": 6892,
      "visited": 6893,
      "footnotes": 6894,
      "gression": 6895,
      "nickname": 6896,
      "passion": 6897,
      "chronic": 6898,
      "scared": 6899,
      "juni": 6900,
      "knight": 6901,
      "lum": 6902,
      "paren": 6903,
      "yi": 6904,
      "zens": 6905,
      "noting": 6906,
      "parad": 6907,
      "chemist": 6908,
      "myspace": 6909,
      "navy": 6910,
      "dying": 6911,
      "dragon": 6912,
      "emails": 6913,
      "googlecom": 6914,
      "slut": 6915,
      "mah": 6916,
      "beer": 6917,
      "tower": 6918,
      "clearer": 6919,
      "harth": 6920,
      "breach": 6921,
      "airport": 6922,
      "grees": 6923,
      "yahoo": 6924,
      "translations": 6925,
      "foolish": 6926,
      "recommended": 6927,
      "blatantly": 6928,
      "hahahahahahahahahahahahahahahaha": 6929,
      "discipl": 6930,
      "sri": 6931,
      "thed": 6932,
      "itative": 6933,
      "agger": 6934,
      "youre": 6935,
      "quanti": 6936,
      "ables": 6937,
      "phd": 6938,
      "traffic": 6939,
      "actively": 6940,
      "reflects": 6941,
      "labeled": 6942,
      "incidentally": 6943,
      "corporate": 6944,
      "layout": 6945,
      "consequences": 6946,
      "weapon": 6947,
      "fontsize": 6948,
      "hostile": 6949,
      "fis": 6950,
      "xon": 6951,
      "zor": 6952,
      "insight": 6953,
      "verification": 6954,
      "unifor": 6955,
      "abused": 6956,
      "abilities": 6957,
      "imho": 6958,
      "mot": 6959,
      "laid": 6960,
      "priest": 6961,
      "comply": 6962,
      "studio": 6963,
      "races": 6964,
      "captain": 6965,
      "avoided": 6966,
      "confirmation": 6967,
      "selective": 6968,
      "zone": 6969,
      "retain": 6970,
      "meta": 6971,
      "shah": 6972,
      "talent": 6973,
      "spy": 6974,
      "nerd": 6975,
      "repeating": 6976,
      "substance": 6977,
      "consistently": 6978,
      "undoing": 6979,
      "husband": 6980,
      "proxy": 6981,
      "simplified": 6982,
      "vine": 6983,
      "det": 6984,
      "degrees": 6985,
      "hoe": 6986,
      "formation": 6987,
      "margin": 6988,
      "angers": 6989,
      "malho": 6990,
      "implying": 6991,
      "hollywood": 6992,
      "mmmmmmmm": 6993,
      "punishment": 6994,
      "tweets": 6995,
      "ey": 6996,
      "mers": 6997,
      "nr": 6998,
      "lem": 6999,
      "codes": 7000,
      "spon": 7001,
      "friday": 7002,
      "wheel": 7003,
      "philosoph": 7004,
      "slander": 7005,
      "bright": 7006,
      "gaming": 7007,
      "intim": 7008,
      "alli": 7009,
      "rig": 7010,
      "sip": 7011,
      "nope": 7012,
      "une": 7013,
      "ported": 7014,
      "veness": 7015,
      "centric": 7016,
      "charged": 7017,
      "drum": 7018,
      "ordered": 7019,
      "cleaned": 7020,
      "growth": 7021,
      "criminalwar": 7022,
      "territories": 7023,
      "entertainment": 7024,
      "taiwan": 7025,
      "emer": 7026,
      "km": 7027,
      "replacing": 7028,
      "chhe": 7029,
      "chill": 7030,
      "entered": 7031,
      "proving": 7032,
      "gods": 7033,
      "boat": 7034,
      "basket": 7035,
      "generic": 7036,
      "governor": 7037,
      "logies": 7038,
      "floor": 7039,
      "championship": 7040,
      "microsoft": 7041,
      "consult": 7042,
      "absence": 7043,
      "bunksteve": 7044,
      "abandon": 7045,
      "kon": 7046,
      "iser": 7047,
      "aman": 7048,
      "addy": 7049,
      "astron": 7050,
      "reverse": 7051,
      "drunk": 7052,
      "importantly": 7053,
      "objec": 7054,
      "hurric": 7055,
      "enemies": 7056,
      "permanently": 7057,
      "bite": 7058,
      "rally": 7059,
      "vard": 7060,
      "lities": 7061,
      "corps": 7062,
      "vandalise": 7063,
      "niger": 7064,
      "brings": 7065,
      "graphics": 7066,
      "controversies": 7067,
      "enwikipediaorgwikiwikipedia": 7068,
      "bishop": 7069,
      "amendment": 7070,
      "dh": 7071,
      "guaran": 7072,
      "formatted": 7073,
      "republicans": 7074,
      "psychology": 7075,
      "thrown": 7076,
      "inspired": 7077,
      "rf": 7078,
      "insur": 7079,
      "atom": 7080,
      "chest": 7081,
      "consent": 7082,
      "ultimate": 7083,
      "reversions": 7084,
      "justin": 7085,
      "membership": 7086,
      "fana": 7087,
      "revisions": 7088,
      "williams": 7089,
      "affected": 7090,
      "wwwwwwwwwwwwwwwwwwwwwwwwwwwwwwww": 7091,
      "bizar": 7092,
      "kiss": 7093,
      "och": 7094,
      "revol": 7095,
      "chess": 7096,
      "loo": 7097,
      "lesbian": 7098,
      "dozens": 7099,
      "faq": 7100,
      "yep": 7101,
      "ions": 7102,
      "cracy": 7103,
      "mytho": 7104,
      "styles": 7105,
      "appropriately": 7106,
      "replies": 7107,
      "invitation": 7108,
      "mexican": 7109,
      "oooooooooooooooo": 7110,
      "cccccccccccccccc": 7111,
      "browser": 7112,
      "pronunciation": 7113,
      "nad": 7114,
      "isol": 7115,
      "iff": 7116,
      "toxic": 7117,
      "paralle": 7118,
      "outright": 7119,
      "lawy": 7120,
      "defence": 7121,
      "sexuality": 7122,
      "observation": 7123,
      "guardian": 7124,
      "perceived": 7125,
      "saturday": 7126,
      "sack": 7127,
      "tier": 7128,
      "veg": 7129,
      "mobile": 7130,
      "boston": 7131,
      "doom": 7132,
      "harris": 7133,
      "anglo": 7134,
      "documentary": 7135,
      "influenced": 7136,
      "mirror": 7137,
      "convert": 7138,
      "scottish": 7139,
      "therapy": 7140,
      "untrue": 7141,
      "vass": 7142,
      "lim": 7143,
      "spending": 7144,
      "scient": 7145,
      "purch": 7146,
      "validity": 7147,
      "economics": 7148,
      "crying": 7149,
      "spiritual": 7150,
      "tribes": 7151,
      "hish": 7152,
      "lm": 7153,
      "stad": 7154,
      "akh": 7155,
      "succes": 7156,
      "privacy": 7157,
      "principal": 7158,
      "revealed": 7159,
      "pppppppp": 7160,
      "kelly": 7161,
      "exclusively": 7162,
      "lud": 7163,
      "pants": 7164,
      "robin": 7165,
      "hem": 7166,
      "coat": 7167,
      "firstly": 7168,
      "thirdparty": 7169,
      "comparing": 7170,
      "incorrectly": 7171,
      "brazil": 7172,
      "scholarship": 7173,
      "atheist": 7174,
      "convicted": 7175,
      "neiln": 7176,
      "bone": 7177,
      "altogether": 7178,
      "thead": 7179,
      "pressive": 7180,
      "nny": 7181,
      "ashamed": 7182,
      "failing": 7183,
      "lacks": 7184,
      "brah": 7185,
      "squad": 7186,
      "hungarian": 7187,
      "frozen": 7188,
      "resistance": 7189,
      "sme": 7190,
      "tight": 7191,
      "arthur": 7192,
      "stani": 7193,
      "itz": 7194,
      "device": 7195,
      "ching": 7196,
      "amy": 7197,
      "silent": 7198,
      "keys": 7199,
      "igen": 7200,
      "bigo": 7201,
      "synt": 7202,
      "faces": 7203,
      "presidential": 7204,
      "incidence": 7205,
      "hilarious": 7206,
      "neighbor": 7207,
      "competent": 7208,
      "vage": 7209,
      "leo": 7210,
      "agged": 7211,
      "iah": 7212,
      "talkcontribs": 7213,
      "dow": 7214,
      "hawa": 7215,
      "yea": 7216,
      "forest": 7217,
      "serbs": 7218,
      "replying": 7219,
      "briefly": 7220,
      "motivation": 7221,
      "dry": 7222,
      "kitch": 7223,
      "tidio": 7224,
      "accent": 7225,
      "proportion": 7226,
      "para": 7227,
      "marcol": 7228,
      "genres": 7229,
      "courtes": 7230,
      "bytes": 7231,
      "improper": 7232,
      "qualifies": 7233,
      "medium": 7234,
      "pretending": 7235,
      "immediate": 7236,
      "spreading": 7237,
      "slim": 7238,
      "volunteer": 7239,
      "believer": 7240,
      "incivility": 7241,
      "roc": 7242,
      "lover": 7243,
      "cious": 7244,
      "portions": 7245,
      "parti": 7246,
      "fairuse": 7247,
      "smack": 7248,
      "transparent": 7249,
      "ppy": 7250,
      "emper": 7251,
      "grew": 7252,
      "drawing": 7253,
      "paying": 7254,
      "kurds": 7255,
      "hillary": 7256,
      "fundament": 7257,
      "croatia": 7258,
      "protocol": 7259,
      "zealand": 7260,
      "outrage": 7261,
      "tidiotidio": 7262,
      "noun": 7263,
      "sne": 7264,
      "sadd": 7265,
      "zar": 7266,
      "atro": 7267,
      "goo": 7268,
      "igan": 7269,
      "likewise": 7270,
      "cution": 7271,
      "confid": 7272,
      "begins": 7273,
      "mccain": 7274,
      "observed": 7275,
      "collap": 7276,
      "cabal": 7277,
      "erase": 7278,
      "rewriting": 7279,
      "ito": 7280,
      "nego": 7281,
      "headings": 7282,
      "restaur": 7283,
      "sharing": 7284,
      "emotional": 7285,
      "institution": 7286,
      "occasionally": 7287,
      "deemed": 7288,
      "guru": 7289,
      "thoroughly": 7290,
      "cricket": 7291,
      "fsdfsd": 7292,
      "hag": 7293,
      "loving": 7294,
      "disgrace": 7295,
      "toe": 7296,
      "assholes": 7297,
      "inem": 7298,
      "bullet": 7299,
      "nonnotable": 7300,
      "noteworthy": 7301,
      "harte": 7302,
      "sexy": 7303,
      "credibly": 7304,
      "interpretations": 7305,
      "fruit": 7306,
      "photographs": 7307,
      "railway": 7308,
      "hypocrisy": 7309,
      "incorporated": 7310,
      "arbitrary": 7311,
      "strategy": 7312,
      "marcolfuck": 7313,
      "afa": 7314,
      "bic": 7315,
      "cash": 7316,
      "kne": 7317,
      "kong": 7318,
      "sued": 7319,
      "abstr": 7320,
      "beach": 7321,
      "iry": 7322,
      "giant": 7323,
      "userbox": 7324,
      "warm": 7325,
      "counted": 7326,
      "aug": 7327,
      "transport": 7328,
      "modify": 7329,
      "jacob": 7330,
      "exercise": 7331,
      "courtesy": 7332,
      "bren": 7333,
      "md": 7334,
      "chri": 7335,
      "uss": 7336,
      "manif": 7337,
      "rah": 7338,
      "creates": 7339,
      "facto": 7340,
      "confuse": 7341,
      "ethics": 7342,
      "boymamas": 7343,
      "contacted": 7344,
      "tamil": 7345,
      "situations": 7346,
      "cine": 7347,
      "tat": 7348,
      "infringe": 7349,
      "agency": 7350,
      "unusual": 7351,
      "ghost": 7352,
      "costs": 7353,
      "brut": 7354,
      "headline": 7355,
      "lastly": 7356,
      "girlfriend": 7357,
      "troops": 7358,
      "jail": 7359,
      "castle": 7360,
      "infinite": 7361,
      "younger": 7362,
      "ape": 7363,
      "kay": 7364,
      "rin": 7365,
      "rings": 7366,
      "sno": 7367,
      "sage": 7368,
      "revised": 7369,
      "oroz": 7370,
      "iring": 7371,
      "goodbye": 7372,
      "leadership": 7373,
      "brilli": 7374,
      "promotes": 7375,
      "wikipedi": 7376,
      "falsely": 7377,
      "experiences": 7378,
      "bastards": 7379,
      "precedent": 7380,
      "selection": 7381,
      "assumptions": 7382,
      "linguistic": 7383,
      "ocean": 7384,
      "bing": 7385,
      "kho": 7386,
      "tort": 7387,
      "eness": 7388,
      "arrange": 7389,
      "icip": 7390,
      "concise": 7391,
      "wider": 7392,
      "actress": 7393,
      "blon": 7394,
      "wheels": 7395,
      "cyprus": 7396,
      "circle": 7397,
      "computers": 7398,
      "unfortunate": 7399,
      "laughing": 7400,
      "rhetor": 7401,
      "junior": 7402,
      "bia": 7403,
      "kor": 7404,
      "wes": 7405,
      "tionary": 7406,
      "decade": 7407,
      "mole": 7408,
      "excus": 7409,
      "ider": 7410,
      "disagrees": 7411,
      "headed": 7412,
      "surname": 7413,
      "governments": 7414,
      "illustrate": 7415,
      "campus": 7416,
      "distribution": 7417,
      "intimid": 7418,
      "hint": 7419,
      "lers": 7420,
      "anni": 7421,
      "rif": 7422,
      "ween": 7423,
      "gib": 7424,
      "evening": 7425,
      "lesson": 7426,
      "cript": 7427,
      "authoritative": 7428,
      "password": 7429,
      "increased": 7430,
      "conducted": 7431,
      "converted": 7432,
      "shorter": 7433,
      "employed": 7434,
      "lorena": 7435,
      "hisher": 7436,
      "orozco": 7437,
      "pel": 7438,
      "pical": 7439,
      "thumb": 7440,
      "lips": 7441,
      "ctor": 7442,
      "senate": 7443,
      "dynasty": 7444,
      "canon": 7445,
      "promised": 7446,
      "breast": 7447,
      "answering": 7448,
      "disturb": 7449,
      "stitute": 7450,
      "constructed": 7451,
      "equip": 7452,
      "faced": 7453,
      "locations": 7454,
      "infoboxes": 7455,
      "tmnd": 7456,
      "syndr": 7457,
      "achieved": 7458,
      "vvvv": 7459,
      "sweden": 7460,
      "painting": 7461,
      "phenomenon": 7462,
      "combination": 7463,
      "uti": 7464,
      "ints": 7465,
      "aco": 7466,
      "wire": 7467,
      "wich": 7468,
      "unil": 7469,
      "motives": 7470,
      "grab": 7471,
      "asks": 7472,
      "refle": 7473,
      "versity": 7474,
      "universi": 7475,
      "owns": 7476,
      "toronto": 7477,
      "fools": 7478,
      "pakistani": 7479,
      "hypocrite": 7480,
      "surrounding": 7481,
      "anthropo": 7482,
      "ytmnd": 7483,
      "tious": 7484,
      "sters": 7485,
      "illa": 7486,
      "jeal": 7487,
      "crew": 7488,
      "signpost": 7489,
      "tribe": 7490,
      "fications": 7491,
      "involves": 7492,
      "cuntcunt": 7493,
      "dollars": 7494,
      "municip": 7495,
      "classification": 7496,
      "bbbbbbbb": 7497,
      "aer": 7498,
      "bry": 7499,
      "wick": 7500,
      "ancy": 7501,
      "stin": 7502,
      "escape": 7503,
      "sustain": 7504,
      "caution": 7505,
      "preach": 7506,
      "credits": 7507,
      "burden": 7508,
      "remained": 7509,
      "penissmall": 7510,
      "conservatives": 7511,
      "civilians": 7512,
      "anarchist": 7513,
      "gamergate": 7514,
      "apost": 7515,
      "mf": 7516,
      "wah": 7517,
      "inity": 7518,
      "incomplete": 7519,
      "incredibly": 7520,
      "dip": 7521,
      "brook": 7522,
      "clarified": 7523,
      "operations": 7524,
      "instant": 7525,
      "conscious": 7526,
      "gig": 7527,
      "hong": 7528,
      "tied": 7529,
      "atal": 7530,
      "advised": 7531,
      "maker": 7532,
      "coal": 7533,
      "berry": 7534,
      "defining": 7535,
      "sidharth": 7536,
      "swan": 7537,
      "nica": 7538,
      "socialism": 7539,
      "russians": 7540,
      "breaks": 7541,
      "discovery": 7542,
      "pedophile": 7543,
      "affairs": 7544,
      "holiday": 7545,
      "genesis": 7546,
      "malhotra": 7547,
      "pash": 7548,
      "pitch": 7549,
      "eda": 7550,
      "reconsider": 7551,
      "sigh": 7552,
      "mentally": 7553,
      "raising": 7554,
      "pertain": 7555,
      "formula": 7556,
      "ounding": 7557,
      "factory": 7558,
      "afford": 7559,
      "overly": 7560,
      "researchers": 7561,
      "emailed": 7562,
      "jersey": 7563,
      "classified": 7564,
      "bizarre": 7565,
      "syntax": 7566,
      "universities": 7567,
      "einstein": 7568,
      "fack": 7569,
      "devoted": 7570,
      "chin": 7571,
      "abc": 7572,
      "quant": 7573,
      "disorder": 7574,
      "blast": 7575,
      "namely": 7576,
      "signal": 7577,
      "legacy": 7578,
      "judging": 7579,
      "alike": 7580,
      "duty": 7581,
      "slowly": 7582,
      "architecture": 7583,
      "bosnia": 7584,
      "phe": 7585,
      "atlan": 7586,
      "wides": 7587,
      "undid": 7588,
      "aped": 7589,
      "mainten": 7590,
      "extend": 7591,
      "anton": 7592,
      "subpage": 7593,
      "medal": 7594,
      "clock": 7595,
      "outline": 7596,
      "defines": 7597,
      "denying": 7598,
      "pasted": 7599,
      "officers": 7600,
      "cycl": 7601,
      "hamas": 7602,
      "cutting": 7603,
      "sufficiently": 7604,
      "privileges": 7605,
      "graduate": 7606,
      "kitchen": 7607,
      "revel": 7608,
      "alert": 7609,
      "ender": 7610,
      "steven": 7611,
      "amate": 7612,
      "worried": 7613,
      "dialogue": 7614,
      "phase": 7615,
      "offend": 7616,
      "iterate": 7617,
      "legit": 7618,
      "awk": 7619,
      "maga": 7620,
      "affir": 7621,
      "simon": 7622,
      "oldest": 7623,
      "tract": 7624,
      "persu": 7625,
      "spa": 7626,
      "diego": 7627,
      "treaty": 7628,
      "declare": 7629,
      "villages": 7630,
      "taylor": 7631,
      "gained": 7632,
      "ottoman": 7633,
      "negoti": 7634,
      "aud": 7635,
      "dit": 7636,
      "praise": 7637,
      "tum": 7638,
      "anus": 7639,
      "ello": 7640,
      "spite": 7641,
      "obma": 7642,
      "cougar": 7643,
      "curren": 7644,
      "carbon": 7645,
      "hammer": 7646,
      "opera": 7647,
      "owners": 7648,
      "recognised": 7649,
      "insulted": 7650,
      "proposals": 7651,
      "britan": 7652,
      "kicked": 7653,
      "eeeeeeeeeeeeeeee": 7654,
      "executive": 7655,
      "kashmir": 7656,
      "etymology": 7657,
      "ales": 7658,
      "tly": 7659,
      "tile": 7660,
      "ark": 7661,
      "orbit": 7662,
      "perception": 7663,
      "inevit": 7664,
      "correspond": 7665,
      "regim": 7666,
      "bulgar": 7667,
      "refu": 7668,
      "funding": 7669,
      "bored": 7670,
      "penn": 7671,
      "targe": 7672,
      "introducing": 7673,
      "sanctions": 7674,
      "pronounced": 7675,
      "pacific": 7676,
      "discrimination": 7677,
      "soccer": 7678,
      "libertarian": 7679,
      "maintenance": 7680,
      "convey": 7681,
      "intu": 7682,
      "attle": 7683,
      "bron": 7684,
      "studied": 7685,
      "handled": 7686,
      "updates": 7687,
      "intentional": 7688,
      "pulled": 7689,
      "corruption": 7690,
      "duplicate": 7691,
      "michigan": 7692,
      "zionist": 7693,
      "suspicious": 7694,
      "discography": 7695,
      "confidence": 7696,
      "syndrome": 7697,
      "gel": 7698,
      "uan": 7699,
      "agues": 7700,
      "uncle": 7701,
      "bean": 7702,
      "iding": 7703,
      "coon": 7704,
      "hazel": 7705,
      "martial": 7706,
      "obtain": 7707,
      "considerable": 7708,
      "userspace": 7709,
      "wikic": 7710,
      "journalists": 7711,
      "gentle": 7712,
      "industrial": 7713,
      "evalu": 7714,
      "hans": 7715,
      "ena": 7716,
      "endless": 7717,
      "diver": 7718,
      "courts": 7719,
      "kenned": 7720,
      "battles": 7721,
      "adams": 7722,
      "bella": 7723,
      "mathematical": 7724,
      "dynamic": 7725,
      "scout": 7726,
      "coherent": 7727,
      "targeted": 7728,
      "nab": 7729,
      "vary": 7730,
      "alog": 7731,
      "orious": 7732,
      "gear": 7733,
      "plural": 7734,
      "worries": 7735,
      "boom": 7736,
      "clin": 7737,
      "mania": 7738,
      "addic": 7739,
      "gran": 7740,
      "misinformation": 7741,
      "yours": 7742,
      "nni": 7743,
      "ethical": 7744,
      "pushed": 7745,
      "popularity": 7746,
      "arrested": 7747,
      "biblio": 7748,
      "columbia": 7749,
      "hra": 7750,
      "rec": 7751,
      "rek": 7752,
      "leon": 7753,
      "wikilove": 7754,
      "indu": 7755,
      "rightwing": 7756,
      "curi": 7757,
      "presentation": 7758,
      "transcl": 7759,
      "resulted": 7760,
      "behave": 7761,
      "clarity": 7762,
      "wilson": 7763,
      "participated": 7764,
      "offering": 7765,
      "relationships": 7766,
      "substantiated": 7767,
      "faster": 7768,
      "allegation": 7769,
      "activist": 7770,
      "citizenship": 7771,
      "bd": 7772,
      "sd": 7773,
      "uous": 7774,
      "uled": 7775,
      "tof": 7776,
      "porno": 7777,
      "matthe": 7778,
      "syd": 7779,
      "guessing": 7780,
      "lengthy": 7781,
      "democrat": 7782,
      "fighter": 7783,
      "hash": 7784,
      "wl": 7785,
      "wins": 7786,
      "argent": 7787,
      "sean": 7788,
      "assign": 7789,
      "verb": 7790,
      "opponents": 7791,
      "neuro": 7792,
      "indones": 7793,
      "ards": 7794,
      "diagno": 7795,
      "sprick": 7796,
      "ribly": 7797,
      "viewpoints": 7798,
      "glass": 7799,
      "afc": 7800,
      "rising": 7801,
      "tropical": 7802,
      "supporter": 7803,
      "nicely": 7804,
      "construct": 7805,
      "princess": 7806,
      "alternatively": 7807,
      "witnesses": 7808,
      "wattwattwattwatt": 7809,
      "divided": 7810,
      "dge": 7811,
      "ience": 7812,
      "stro": 7813,
      "estim": 7814,
      "delan": 7815,
      "adap": 7816,
      "enty": 7817,
      "pls": 7818,
      "trac": 7819,
      "interaction": 7820,
      "monday": 7821,
      "archae": 7822,
      "definitive": 7823,
      "queer": 7824,
      "alternatives": 7825,
      "driver": 7826,
      "honour": 7827,
      "occurs": 7828,
      "secure": 7829,
      "palestinians": 7830,
      "crowd": 7831,
      "exceptions": 7832,
      "czech": 7833,
      "kha": 7834,
      "seal": 7835,
      "protests": 7836,
      "vich": 7837,
      "dishonest": 7838,
      "raham": 7839,
      "calen": 7840,
      "vocal": 7841,
      "clothes": 7842,
      "triple": 7843,
      "honesty": 7844,
      "loyal": 7845,
      "sweep": 7846,
      "compliance": 7847,
      "mathematics": 7848,
      "spricksprick": 7849,
      "sting": 7850,
      "ays": 7851,
      "veget": 7852,
      "beating": 7853,
      "countless": 7854,
      "vandalised": 7855,
      "logs": 7856,
      "questioning": 7857,
      "dale": 7858,
      "weekly": 7859,
      "boards": 7860,
      "magazines": 7861,
      "ministry": 7862,
      "ancestors": 7863,
      "shorten": 7864,
      "masters": 7865,
      "arrived": 7866,
      "kansas": 7867,
      "kom": 7868,
      "vinc": 7869,
      "inary": 7870,
      "isp": 7871,
      "isles": 7872,
      "activ": 7873,
      "versus": 7874,
      "unreasonable": 7875,
      "andro": 7876,
      "pler": 7877,
      "notation": 7878,
      "freebsd": 7879,
      "tense": 7880,
      "borders": 7881,
      "penal": 7882,
      "biology": 7883,
      "participating": 7884,
      "communications": 7885,
      "ranking": 7886,
      "institutions": 7887,
      "scrut": 7888,
      "virtual": 7889,
      "immigration": 7890,
      "caucas": 7891,
      "fascism": 7892,
      "drew": 7893,
      "dread": 7894,
      "kent": 7895,
      "mol": 7896,
      "ohi": 7897,
      "pad": 7898,
      "zili": 7899,
      "alpha": 7900,
      "thick": 7901,
      "ams": 7902,
      "unaware": 7903,
      "epic": 7904,
      "indicating": 7905,
      "officials": 7906,
      "processes": 7907,
      "pier": 7908,
      "slavic": 7909,
      "salute": 7910,
      "temporarily": 7911,
      "collaborative": 7912,
      "accidentally": 7913,
      "pleasant": 7914,
      "above": 7915,
      "basketball": 7916,
      "widespread": 7917,
      "nag": 7918,
      "uno": 7919,
      "ende": 7920,
      "isa": 7921,
      "lift": 7922,
      "presents": 7923,
      "implied": 7924,
      "cuntbag": 7925,
      "preferences": 7926,
      "walking": 7927,
      "securityfuck": 7928,
      "virginia": 7929,
      "xxxxxxxx": 7930,
      "bond": 7931,
      "cers": 7932,
      "medit": 7933,
      "reign": 7934,
      "ament": 7935,
      "provision": 7936,
      "shed": 7937,
      "sensible": 7938,
      "sucking": 7939,
      "commonwealth": 7940,
      "washed": 7941,
      "tracks": 7942,
      "enwikipediaorgwikiusertalk": 7943,
      "geography": 7944,
      "slip": 7945,
      "nuts": 7946,
      "environmental": 7947,
      "fighters": 7948,
      "affiliated": 7949,
      "compatible": 7950,
      "hockey": 7951,
      "clubs": 7952,
      "chemistry": 7953,
      "hurricane": 7954,
      "equality": 7955,
      "gf": 7956,
      "rss": 7957,
      "allen": 7958,
      "encount": 7959,
      "adher": 7960,
      "theast": 7961,
      "joint": 7962,
      "syl": 7963,
      "functions": 7964,
      "hominem": 7965,
      "winner": 7966,
      "cultures": 7967,
      "cros": 7968,
      "wasnt": 7969,
      "identifying": 7970,
      "accessible": 7971,
      "elaborate": 7972,
      "bj": 7973,
      "mall": 7974,
      "wwii": 7975,
      "isations": 7976,
      "liest": 7977,
      "amusing": 7978,
      "impressed": 7979,
      "pertin": 7980,
      "applying": 7981,
      "illness": 7982,
      "canvass": 7983,
      "questioned": 7984,
      "lifetime": 7985,
      "solutions": 7986,
      "hydro": 7987,
      "delusion": 7988,
      "stays": 7989,
      "containing": 7990,
      "accel": 7991,
      "babies": 7992,
      "successfully": 7993,
      "colonial": 7994,
      "electronic": 7995,
      "hm": 7996,
      "jin": 7997,
      "nin": 7998,
      "revi": 7999,
      "enlight": 8000,
      "impartial": 8001,
      "jection": 8002,
      "thankyou": 8003,
      "mari": 8004,
      "puer": 8005,
      "meanings": 8006,
      "generated": 8007,
      "waters": 8008,
      "buff": 8009,
      "italic": 8010,
      "avoiding": 8011,
      "aneous": 8012,
      "satisfied": 8013,
      "deliberate": 8014,
      "symbols": 8015,
      "prejudice": 8016,
      "emperor": 8017,
      "tf": 8018,
      "wine": 8019,
      "tibet": 8020,
      "adol": 8021,
      "sians": 8022,
      "cave": 8023,
      "diagram": 8024,
      "fos": 8025,
      "offers": 8026,
      "believing": 8027,
      "ifications": 8028,
      "daw": 8029,
      "falsi": 8030,
      "summarize": 8031,
      "macedonians": 8032,
      "albanians": 8033,
      "alcohol": 8034,
      "kennedy": 8035,
      "tl": 8036,
      "vable": 8037,
      "erased": 8038,
      "teous": 8039,
      "kies": 8040,
      "pleased": 8041,
      "sale": 8042,
      "continually": 8043,
      "compound": 8044,
      "treating": 8045,
      "recording": 8046,
      "sooner": 8047,
      "elizab": 8048,
      "developing": 8049,
      "catholics": 8050,
      "awarded": 8051,
      "modific": 8052,
      "divisions": 8053,
      "genuinely": 8054,
      "fundamentally": 8055,
      "fk": 8056,
      "gop": 8057,
      "oreg": 8058,
      "lewis": 8059,
      "deals": 8060,
      "chip": 8061,
      "saving": 8062,
      "medie": 8063,
      "visiting": 8064,
      "fried": 8065,
      "communists": 8066,
      "precious": 8067,
      "deserved": 8068,
      "linux": 8069,
      "routine": 8070,
      "etiquette": 8071,
      "veggie": 8072,
      "faction": 8073,
      "hating": 8074,
      "rag": 8075,
      "rous": 8076,
      "recru": 8077,
      "tists": 8078,
      "beit": 8079,
      "bogus": 8080,
      "tape": 8081,
      "hah": 8082,
      "mario": 8083,
      "orses": 8084,
      "crush": 8085,
      "findings": 8086,
      "boxing": 8087,
      "pursue": 8088,
      "burning": 8089,
      "iography": 8090,
      "contacting": 8091,
      "europeans": 8092,
      "conclude": 8093,
      "loyd": 8094,
      "beatles": 8095,
      "crystal": 8096,
      "kkkkkkkkkkkkkkkk": 8097,
      "shannon": 8098,
      "quantum": 8099,
      "elizabeth": 8100,
      "kas": 8101,
      "xd": 8102,
      "resem": 8103,
      "liking": 8104,
      "query": 8105,
      "hibi": 8106,
      "plz": 8107,
      "fuckoff": 8108,
      "ficial": 8109,
      "ensity": 8110,
      "schedu": 8111,
      "nonetheless": 8112,
      "bruce": 8113,
      "journalism": 8114,
      "turkic": 8115,
      "somal": 8116,
      "aaaaaaaaaaaaaaaaaaaaaaaaaaaaaaaaaaaaaaaaaaaaaaaaaaaaaaaaaaaaaaaa": 8117,
      "britannica": 8118,
      "atives": 8119,
      "vah": 8120,
      "ante": 8121,
      "allies": 8122,
      "admir": 8123,
      "pete": 8124,
      "beast": 8125,
      "youbollocks": 8126,
      "immature": 8127,
      "wayne": 8128,
      "bern": 8129,
      "crete": 8130,
      "interfer": 8131,
      "evident": 8132,
      "seemingly": 8133,
      "punished": 8134,
      "angeles": 8135,
      "reminder": 8136,
      "basteredbastered": 8137,
      "borrowed": 8138,
      "brilliant": 8139,
      "sf": 8140,
      "lobby": 8141,
      "rival": 8142,
      "peak": 8143,
      "neon": 8144,
      "bearing": 8145,
      "gies": 8146,
      "blan": 8147,
      "attor": 8148,
      "partner": 8149,
      "generate": 8150,
      "breath": 8151,
      "selfpublished": 8152,
      "scrot": 8153,
      "trees": 8154,
      "collective": 8155,
      "driven": 8156,
      "maintained": 8157,
      "survive": 8158,
      "procedures": 8159,
      "keeper": 8160,
      "temperature": 8161,
      "fartchina": 8162,
      "techniques": 8163,
      "fli": 8164,
      "jere": 8165,
      "naked": 8166,
      "uri": 8167,
      "orum": 8168,
      "atmo": 8169,
      "semin": 8170,
      "liz": 8171,
      "poison": 8172,
      "harvard": 8173,
      "twenty": 8174,
      "grave": 8175,
      "ugal": 8176,
      "reaching": 8177,
      "difficulty": 8178,
      "healthy": 8179,
      "celtic": 8180,
      "residents": 8181,
      "restrictions": 8182,
      "mechanism": 8183,
      "stinks": 8184,
      "saudi": 8185,
      "academics": 8186,
      "manifest": 8187,
      "scrotum": 8188,
      "bent": 8189,
      "pity": 8190,
      "sans": 8191,
      "contra": 8192,
      "conception": 8193,
      "nether": 8194,
      "gol": 8195,
      "meme": 8196,
      "uto": 8197,
      "deri": 8198,
      "bleach": 8199,
      "userboxes": 8200,
      "serial": 8201,
      "puzz": 8202,
      "senator": 8203,
      "closure": 8204,
      "valign": 8205,
      "memorial": 8206,
      "nationalistic": 8207,
      "producer": 8208,
      "solar": 8209,
      "magne": 8210,
      "patrick": 8211,
      "debates": 8212,
      "literal": 8213,
      "blanked": 8214,
      "licker": 8215,
      "buddhist": 8216,
      "technique": 8217,
      "flawed": 8218,
      "azerbaijan": 8219,
      "cad": 8220,
      "iest": 8221,
      "ksh": 8222,
      "yn": 8223,
      "yah": 8224,
      "inconsistent": 8225,
      "ora": 8226,
      "adults": 8227,
      "beings": 8228,
      "manga": 8229,
      "derog": 8230,
      "parano": 8231,
      "mug": 8232,
      "subs": 8233,
      "considers": 8234,
      "phant": 8235,
      "partly": 8236,
      "carl": 8237,
      "prompt": 8238,
      "experiments": 8239,
      "extrem": 8240,
      "percentage": 8241,
      "inferior": 8242,
      "erroneous": 8243,
      "veggietales": 8244,
      "cue": 8245,
      "gic": 8246,
      "gap": 8247,
      "hou": 8248,
      "iti": 8249,
      "mant": 8250,
      "rhy": 8251,
      "sper": 8252,
      "relie": 8253,
      "rix": 8254,
      "conversion": 8255,
      "nobel": 8256,
      "abbre": 8257,
      "fork": 8258,
      "tos": 8259,
      "umen": 8260,
      "reliably": 8261,
      "analogy": 8262,
      "disagreements": 8263,
      "camps": 8264,
      "chiro": 8265,
      "trained": 8266,
      "concernthanks": 8267,
      "archiving": 8268,
      "tolerated": 8269,
      "eliminate": 8270,
      "victoria": 8271,
      "uniform": 8272,
      "ture": 8273,
      "wound": 8274,
      "yup": 8275,
      "eder": 8276,
      "elite": 8277,
      "convinc": 8278,
      "sile": 8279,
      "sham": 8280,
      "counting": 8281,
      "gency": 8282,
      "genius": 8283,
      "gnu": 8284,
      "bilities": 8285,
      "webpage": 8286,
      "lane": 8287,
      "barack": 8288,
      "researched": 8289,
      "musicians": 8290,
      "pseudoscience": 8291,
      "francisco": 8292,
      "delivered": 8293,
      "houses": 8294,
      "observations": 8295,
      "sovereign": 8296,
      "approximately": 8297,
      "parallel": 8298,
      "ohio": 8299,
      "lation": 8300,
      "tus": 8301,
      "tas": 8302,
      "tack": 8303,
      "retire": 8304,
      "albert": 8305,
      "ario": 8306,
      "pover": 8307,
      "ruin": 8308,
      "ensns": 8309,
      "hardcore": 8310,
      "sought": 8311,
      "morons": 8312,
      "stronger": 8313,
      "destroying": 8314,
      "suffering": 8315,
      "subsequently": 8316,
      "retrieved": 8317,
      "awkward": 8318,
      "caps": 8319,
      "jason": 8320,
      "mn": 8321,
      "slang": 8322,
      "indefinite": 8323,
      "tiger": 8324,
      "itzer": 8325,
      "roger": 8326,
      "apar": 8327,
      "coincidence": 8328,
      "grasp": 8329,
      "clever": 8330,
      "probability": 8331,
      "connections": 8332,
      "advert": 8333,
      "slap": 8334,
      "filling": 8335,
      "hotel": 8336,
      "billy": 8337,
      "armenians": 8338,
      "ironic": 8339,
      "wisdom": 8340,
      "attract": 8341,
      "quarter": 8342,
      "lifted": 8343,
      "alumni": 8344,
      "medieval": 8345,
      "lined": 8346,
      "rage": 8347,
      "into": 8348,
      "instruct": 8349,
      "agers": 8350,
      "provo": 8351,
      "aba": 8352,
      "exemp": 8353,
      "guided": 8354,
      "jeho": 8355,
      "appy": 8356,
      "miscell": 8357,
      "tested": 8358,
      "sitush": 8359,
      "struggle": 8360,
      "tongue": 8361,
      "movements": 8362,
      "biological": 8363,
      "homes": 8364,
      "discusses": 8365,
      "nonex": 8366,
      "accepting": 8367,
      "peerreviewed": 8368,
      "dollar": 8369,
      "occasions": 8370,
      "ancestryfuckoff": 8371,
      "delanoy": 8372,
      "oregon": 8373,
      "fb": 8374,
      "kann": 8375,
      "lac": 8376,
      "yas": 8377,
      "polar": 8378,
      "keen": 8379,
      "exha": 8380,
      "readable": 8381,
      "bla": 8382,
      "laure": 8383,
      "trim": 8384,
      "passes": 8385,
      "hhhhhhhhhhhhhhhh": 8386,
      "leftist": 8387,
      "defeat": 8388,
      "employees": 8389,
      "revenge": 8390,
      "partially": 8391,
      "ancestryfuckoffjewish": 8392,
      "dash": 8393,
      "mk": 8394,
      "oli": 8395,
      "thug": 8396,
      "impose": 8397,
      "plants": 8398,
      "bott": 8399,
      "disabled": 8400,
      "fection": 8401,
      "marry": 8402,
      "newly": 8403,
      "ruining": 8404,
      "aryan": 8405,
      "attended": 8406,
      "entials": 8407,
      "misunderstood": 8408,
      "knowledgeable": 8409,
      "convenience": 8410,
      "corporation": 8411,
      "currency": 8412,
      "kle": 8413,
      "estimate": 8414,
      "depression": 8415,
      "ambass": 8416,
      "comput": 8417,
      "terri": 8418,
      "offence": 8419,
      "outdated": 8420,
      "client": 8421,
      "meetup": 8422,
      "bothering": 8423,
      "trusted": 8424,
      "threads": 8425,
      "volunteers": 8426,
      "trend": 8427,
      "doctrine": 8428,
      "lunch": 8429,
      "mend": 8430,
      "mouse": 8431,
      "scare": 8432,
      "asy": 8433,
      "exagger": 8434,
      "diversity": 8435,
      "choo": 8436,
      "hub": 8437,
      "relates": 8438,
      "histories": 8439,
      "johnny": 8440,
      "stolen": 8441,
      "phrasing": 8442,
      "applications": 8443,
      "obsessed": 8444,
      "albania": 8445,
      "hunter": 8446,
      "cookie": 8447,
      "clown": 8448,
      "derogatory": 8449,
      "dul": 8450,
      "fen": 8451,
      "wright": 8452,
      "ambi": 8453,
      "nol": 8454,
      "appoint": 8455,
      "divor": 8456,
      "spu": 8457,
      "butter": 8458,
      "explor": 8459,
      "fund": 8460,
      "loaded": 8461,
      "racists": 8462,
      "trevor": 8463,
      "walker": 8464,
      "programming": 8465,
      "roughly": 8466,
      "lincol": 8467,
      "exclude": 8468,
      "rumors": 8469,
      "philip": 8470,
      "tournam": 8471,
      "fantastic": 8472,
      "frustrated": 8473,
      "lebanon": 8474,
      "evange": 8475,
      "scientology": 8476,
      "fusion": 8477,
      "nk": 8478,
      "pare": 8479,
      "sj": 8480,
      "vp": 8481,
      "anity": 8482,
      "veter": 8483,
      "petition": 8484,
      "resort": 8485,
      "needing": 8486,
      "inclined": 8487,
      "syrian": 8488,
      "merry": 8489,
      "smh": 8490,
      "evidently": 8491,
      "studying": 8492,
      "mrs": 8493,
      "annual": 8494,
      "slur": 8495,
      "flex": 8496,
      "maintaining": 8497,
      "reserve": 8498,
      "bradbury": 8499,
      "garden": 8500,
      "christop": 8501,
      "torture": 8502,
      "pertinent": 8503,
      "eats": 8504,
      "pto": 8505,
      "intr": 8506,
      "rex": 8507,
      "returning": 8508,
      "asi": 8509,
      "pec": 8510,
      "vista": 8511,
      "cloud": 8512,
      "prevail": 8513,
      "aret": 8514,
      "monten": 8515,
      "subtle": 8516,
      "athle": 8517,
      "confirms": 8518,
      "censoring": 8519,
      "bombing": 8520,
      "resident": 8521,
      "govt": 8522,
      "ratings": 8523,
      "automated": 8524,
      "egyptian": 8525,
      "lash": 8526,
      "nap": 8527,
      "vc": 8528,
      "vak": 8529,
      "escal": 8530,
      "rians": 8531,
      "expressing": 8532,
      "trace": 8533,
      "heh": 8534,
      "mayor": 8535,
      "putin": 8536,
      "stopping": 8537,
      "autob": 8538,
      "resulting": 8539,
      "romania": 8540,
      "traditions": 8541,
      "investigations": 8542,
      "notified": 8543,
      "ooooooooo": 8544,
      "spaces": 8545,
      "miller": 8546,
      "masturb": 8547,
      "grammatical": 8548,
      "atlantic": 8549,
      "aar": 8550,
      "aqu": 8551,
      "hye": 8552,
      "jg": 8553,
      "xy": 8554,
      "suits": 8555,
      "mob": 8556,
      "exceed": 8557,
      "exhibit": 8558,
      "toi": 8559,
      "gled": 8560,
      "athan": 8561,
      "judges": 8562,
      "jaja": 8563,
      "pilot": 8564,
      "untagged": 8565,
      "falling": 8566,
      "patients": 8567,
      "wtc": 8568,
      "cards": 8569,
      "comprehen": 8570,
      "restricted": 8571,
      "employee": 8572,
      "defamatory": 8573,
      "mythology": 8574,
      "neighborhood": 8575,
      "eco": 8576,
      "wu": 8577,
      "stom": 8578,
      "conced": 8579,
      "uncited": 8580,
      "ifer": 8581,
      "curry": 8582,
      "approve": 8583,
      "hindi": 8584,
      "begun": 8585,
      "dropping": 8586,
      "cruel": 8587,
      "thorpe": 8588,
      "measures": 8589,
      "biblical": 8590,
      "synony": 8591,
      "ih": 8592,
      "pil": 8593,
      "pard": 8594,
      "vfd": 8595,
      "chand": 8596,
      "ussr": 8597,
      "vet": 8598,
      "truck": 8599,
      "tale": 8600,
      "ella": 8601,
      "anyhow": 8602,
      "listas": 8603,
      "glas": 8604,
      "continent": 8605,
      "refusing": 8606,
      "mming": 8607,
      "brazili": 8608,
      "alalalalalalalalalalalalalalalal": 8609,
      "shirt": 8610,
      "bach": 8611,
      "cure": 8612,
      "hap": 8613,
      "kri": 8614,
      "thand": 8615,
      "loid": 8616,
      "assigned": 8617,
      "tica": 8618,
      "reson": 8619,
      "indigen": 8620,
      "dual": 8621,
      "dust": 8622,
      "misuse": 8623,
      "arguably": 8624,
      "draf": 8625,
      "wikit": 8626,
      "stalker": 8627,
      "criminals": 8628,
      "grading": 8629,
      "broader": 8630,
      "frequency": 8631,
      "iiiiiiiiiiiiiiii": 8632,
      "alphabe": 8633,
      "clause": 8634,
      "assembly": 8635,
      "lonely": 8636,
      "jealous": 8637,
      "amateur": 8638,
      "abbrevi": 8639,
      "bans": 8640,
      "eb": 8641,
      "rt": 8642,
      "algor": 8643,
      "arist": 8644,
      "seat": 8645,
      "moore": 8646,
      "disappointed": 8647,
      "shr": 8648,
      "cake": 8649,
      "foo": 8650,
      "udge": 8651,
      "backs": 8652,
      "messed": 8653,
      "expires": 8654,
      "ballz": 8655,
      "wishing": 8656,
      "nominating": 8657,
      "debt": 8658,
      "characteristics": 8659,
      "punct": 8660,
      "strikes": 8661,
      "grandfather": 8662,
      "secretary": 8663,
      "armenia": 8664,
      "stituted": 8665,
      "contradiction": 8666,
      "adequate": 8667,
      "horses": 8668,
      "kol": 8669,
      "infant": 8670,
      "arran": 8671,
      "liqu": 8672,
      "jean": 8673,
      "interven": 8674,
      "chez": 8675,
      "nail": 8676,
      "copyedit": 8677,
      "searched": 8678,
      "versary": 8679,
      "expired": 8680,
      "filthy": 8681,
      "kurdish": 8682,
      "cherry": 8683,
      "civilization": 8684,
      "alliance": 8685,
      "aes": 8686,
      "daddy": 8687,
      "oops": 8688,
      "repost": 8689,
      "usal": 8690,
      "proces": 8691,
      "irrit": 8692,
      "indis": 8693,
      "jet": 8694,
      "examine": 8695,
      "producing": 8696,
      "lovely": 8697,
      "hahahahaha": 8698,
      "extremist": 8699,
      "hurra": 8700,
      "reflected": 8701,
      "streets": 8702,
      "hmmm": 8703,
      "shocked": 8704,
      "reread": 8705,
      "cheatsheet": 8706,
      "collapse": 8707,
      "eag": 8708,
      "iac": 8709,
      "nbc": 8710,
      "pear": 8711,
      "uninvolved": 8712,
      "plaus": 8713,
      "tedly": 8714,
      "bies": 8715,
      "differenti": 8716,
      "memor": 8717,
      "surgery": 8718,
      "bald": 8719,
      "tistic": 8720,
      "cells": 8721,
      "convenient": 8722,
      "satell": 8723,
      "hahahah": 8724,
      "presume": 8725,
      "shift": 8726,
      "algorith": 8727,
      "crib": 8728,
      "hism": 8729,
      "jd": 8730,
      "jdelanoy": 8731,
      "nau": 8732,
      "ontar": 8733,
      "remed": 8734,
      "enthus": 8735,
      "liars": 8736,
      "tero": 8737,
      "olas": 8738,
      "rub": 8739,
      "mption": 8740,
      "thole": 8741,
      "expecting": 8742,
      "hanging": 8743,
      "literary": 8744,
      "circles": 8745,
      "peaceful": 8746,
      "doctors": 8747,
      "variation": 8748,
      "jumping": 8749,
      "frustrating": 8750,
      "celebrity": 8751,
      "fuckfuckfuckfuckfuckfuckfuckfuckfuckfuckfuckfuckfuckfuckfuckfuck": 8752,
      "cartoon": 8753,
      "airl": 8754,
      "jess": 8755,
      "inating": 8756,
      "resign": 8757,
      "seman": 8758,
      "roo": 8759,
      "noble": 8760,
      "prov": 8761,
      "abraham": 8762,
      "clutter": 8763,
      "newer": 8764,
      "newbie": 8765,
      "steel": 8766,
      "mighty": 8767,
      "bugs": 8768,
      "scroll": 8769,
      "properties": 8770,
      "reporter": 8771,
      "germanic": 8772,
      "sticking": 8773,
      "conventional": 8774,
      "budget": 8775,
      "tendency": 8776,
      "investigate": 8777,
      "humour": 8778,
      "roads": 8779,
      "turkeyfuck": 8780,
      "hinduism": 8781,
      "gwen": 8782,
      "dimen": 8783,
      "stadium": 8784,
      "calendar": 8785,
      "lincoln": 8786,
      "jm": 8787,
      "vand": 8788,
      "vital": 8789,
      "ori": 8790,
      "atar": 8791,
      "concrete": 8792,
      "keith": 8793,
      "unfounded": 8794,
      "wherever": 8795,
      "weed": 8796,
      "manchester": 8797,
      "inet": 8798,
      "chances": 8799,
      "fairness": 8800,
      "borough": 8801,
      "omatic": 8802,
      "arabia": 8803,
      "batman": 8804,
      "metaph": 8805,
      "declaration": 8806,
      "fiable": 8807,
      "casualties": 8808,
      "convincing": 8809,
      "fate": 8810,
      "xlarge": 8811,
      "titive": 8812,
      "righ": 8813,
      "unfree": 8814,
      "backing": 8815,
      "miser": 8816,
      "wned": 8817,
      "huura": 8818,
      "ahouse": 8819,
      "generations": 8820,
      "refuses": 8821,
      "earned": 8822,
      "mister": 8823,
      "staying": 8824,
      "jane": 8825,
      "enjoyed": 8826,
      "cambridge": 8827,
      "hadith": 8828,
      "dictator": 8829,
      "queries": 8830,
      "contradictory": 8831,
      "maximum": 8832,
      "christopher": 8833,
      "hyehuh": 8834,
      "cp": 8835,
      "pent": 8836,
      "yada": 8837,
      "returns": 8838,
      "thri": 8839,
      "admi": 8840,
      "poles": 8841,
      "oph": 8842,
      "anderson": 8843,
      "hier": 8844,
      "bog": 8845,
      "dissent": 8846,
      "formally": 8847,
      "ffin": 8848,
      "sail": 8849,
      "poss": 8850,
      "entities": 8851,
      "sorting": 8852,
      "aimed": 8853,
      "wrongly": 8854,
      "kov": 8855,
      "concluded": 8856,
      "tabtab": 8857,
      "sequence": 8858,
      "seasons": 8859,
      "baseless": 8860,
      "complained": 8861,
      "notify": 8862,
      "heroes": 8863,
      "civilian": 8864,
      "swift": 8865,
      "saget": 8866,
      "equipment": 8867,
      "freebsdgirl": 8868,
      "puerto": 8869,
      "bind": 8870,
      "dil": 8871,
      "ein": 8872,
      "svg": 8873,
      "vacc": 8874,
      "tians": 8875,
      "concur": 8876,
      "noon": 8877,
      "teeth": 8878,
      "beef": 8879,
      "ardo": 8880,
      "coz": 8881,
      "endors": 8882,
      "gaza": 8883,
      "originated": 8884,
      "indef": 8885,
      "cali": 8886,
      "appearances": 8887,
      "defended": 8888,
      "hhh": 8889,
      "criticized": 8890,
      "punjab": 8891,
      "hypocritical": 8892,
      "adopt": 8893,
      "smoking": 8894,
      "harmful": 8895,
      "extension": 8896,
      "ophobia": 8897,
      "buddhism": 8898,
      "disturbing": 8899,
      "subscribe": 8900,
      "bah": 8901,
      "dq": 8902,
      "oak": 8903,
      "xen": 8904,
      "stack": 8905,
      "stum": 8906,
      "sies": 8907,
      "poke": 8908,
      "unhelpful": 8909,
      "teahouse": 8910,
      "shy": 8911,
      "diam": 8912,
      "mild": 8913,
      "worker": 8914,
      "sysop": 8915,
      "deletedthis": 8916,
      "agreeing": 8917,
      "harmon": 8918,
      "organisations": 8919,
      "socie": 8920,
      "patrol": 8921,
      "raping": 8922,
      "excluded": 8923,
      "predict": 8924,
      "ullmann": 8925,
      "privilege": 8926,
      "matthew": 8927,
      "attorney": 8928,
      "indigenous": 8929,
      "gad": 8930,
      "pour": 8931,
      "rett": 8932,
      "albeit": 8933,
      "acious": 8934,
      "roles": 8935,
      "robot": 8936,
      "riots": 8937,
      "undone": 8938,
      "disregard": 8939,
      "dismissed": 8940,
      "misogy": 8941,
      "messing": 8942,
      "transform": 8943,
      "captured": 8944,
      "belt": 8945,
      "faggotgay": 8946,
      "patter": 8947,
      "disrupt": 8948,
      "tends": 8949,
      "visitors": 8950,
      "aviation": 8951,
      "congrats": 8952,
      "intuitive": 8953,
      "poverty": 8954,
      "ontario": 8955,
      "dump": 8956,
      "foul": 8957,
      "wad": 8958,
      "incredible": 8959,
      "enger": 8960,
      "asper": 8961,
      "pee": 8962,
      "unes": 8963,
      "gospel": 8964,
      "trum": 8965,
      "mie": 8966,
      "cents": 8967,
      "shitfuck": 8968,
      "norman": 8969,
      "nyc": 8970,
      "losers": 8971,
      "teachings": 8972,
      "centralist": 8973,
      "reminds": 8974,
      "educate": 8975,
      "eliminated": 8976,
      "certific": 8977,
      "politan": 8978,
      "swango": 8979,
      "bou": 8980,
      "beng": 8981,
      "lank": 8982,
      "devices": 8983,
      "loop": 8984,
      "theo": 8985,
      "plug": 8986,
      "indirect": 8987,
      "dispar": 8988,
      "disagreed": 8989,
      "mile": 8990,
      "monu": 8991,
      "voy": 8992,
      "vowel": 8993,
      "sorted": 8994,
      "tues": 8995,
      "clip": 8996,
      "sided": 8997,
      "patron": 8998,
      "afterwards": 8999,
      "gravity": 9000,
      "unblocking": 9001,
      "ladies": 9002,
      "franch": 9003,
      "rankings": 9004,
      "dreams": 9005,
      "tolerate": 9006,
      "extensively": 9007,
      "estimates": 9008,
      "launched": 9009,
      "defeated": 9010,
      "implications": 9011,
      "forbidden": 9012,
      "philosophical": 9013,
      "pashtun": 9014,
      "netherlands": 9015,
      "fm": 9016,
      "ht": 9017,
      "ij": 9018,
      "iop": 9019,
      "lun": 9020,
      "wie": 9021,
      "mood": 9022,
      "ratio": 9023,
      "cole": 9024,
      "psis": 9025,
      "buried": 9026,
      "createdtook": 9027,
      "kkk": 9028,
      "automatic": 9029,
      "aiv": 9030,
      "associate": 9031,
      "physically": 9032,
      "nationally": 9033,
      "taxes": 9034,
      "immigrants": 9035,
      "fifth": 9036,
      "lithuan": 9037,
      "juris": 9038,
      "flaws": 9039,
      "nl": 9040,
      "rv": 9041,
      "inner": 9042,
      "rebut": 9043,
      "reinst": 9044,
      "dean": 9045,
      "devi": 9046,
      "rober": 9047,
      "abide": 9048,
      "abet": 9049,
      "impressive": 9050,
      "discredit": 9051,
      "lesser": 9052,
      "blur": 9053,
      "curse": 9054,
      "syno": 9055,
      "susp": 9056,
      "vade": 9057,
      "withdraw": 9058,
      "produces": 9059,
      "decides": 9060,
      "populations": 9061,
      "treas": 9062,
      "tempt": 9063,
      "markup": 9064,
      "hispanic": 9065,
      "priority": 9066,
      "explore": 9067,
      "shopping": 9068,
      "inherently": 9069,
      "schedule": 9070,
      "aol": 9071,
      "ima": 9072,
      "xbox": 9073,
      "verbal": 9074,
      "oped": 9075,
      "deletes": 9076,
      "mars": 9077,
      "removes": 9078,
      "struck": 9079,
      "osity": 9080,
      "pile": 9081,
      "ffffffff": 9082,
      "hairy": 9083,
      "initiated": 9084,
      "supremac": 9085,
      "achievements": 9086,
      "mutual": 9087,
      "doubts": 9088,
      "assassination": 9089,
      "theatre": 9090,
      "centraliststupid": 9091,
      "feld": 9092,
      "kl": 9093,
      "oth": 9094,
      "thetical": 9095,
      "apes": 9096,
      "beaut": 9097,
      "anytime": 9098,
      "izon": 9099,
      "wells": 9100,
      "ideo": 9101,
      "understandable": 9102,
      "morris": 9103,
      "lawsuit": 9104,
      "expensive": 9105,
      "deciding": 9106,
      "chaos": 9107,
      "shithole": 9108,
      "observer": 9109,
      "genetics": 9110,
      "attribute": 9111,
      "geographic": 9112,
      "adoption": 9113,
      "incorporate": 9114,
      "jonathan": 9115,
      "screenshot": 9116,
      "shakespe": 9117,
      "guarantee": 9118,
      "aq": 9119,
      "dm": 9120,
      "pag": 9121,
      "rical": 9122,
      "yr": 9123,
      "readd": 9124,
      "retro": 9125,
      "ington": 9126,
      "confront": 9127,
      "kil": 9128,
      "provin": 9129,
      "irony": 9130,
      "blues": 9131,
      "warren": 9132,
      "barry": 9133,
      "heres": 9134,
      "researching": 9135,
      "harassed": 9136,
      "psychi": 9137,
      "labels": 9138,
      "drinking": 9139,
      "sloppy": 9140,
      "advocacy": 9141,
      "prohibited": 9142,
      "mystery": 9143,
      "perpetr": 9144,
      "jumped": 9145,
      "cousin": 9146,
      "debut": 9147,
      "chu": 9148,
      "chant": 9149,
      "ife": 9150,
      "moot": 9151,
      "wet": 9152,
      "disaster": 9153,
      "bitter": 9154,
      "suppress": 9155,
      "watson": 9156,
      "oversight": 9157,
      "idio": 9158,
      "traits": 9159,
      "mailcom": 9160,
      "awareness": 9161,
      "slaugh": 9162,
      "propagand": 9163,
      "smoke": 9164,
      "psychological": 9165,
      "skip": 9166,
      "abstract": 9167,
      "suspended": 9168,
      "sna": 9169,
      "smil": 9170,
      "acle": 9171,
      "acid": 9172,
      "icy": 9173,
      "icts": 9174,
      "metric": 9175,
[...]
